#ifndef C:\USERS\PC-KUN\DESKTOP\MOGLOVE ML\DUMPED_MODEL.H_H
#define C:\USERS\PC-KUN\DESKTOP\MOGLOVE ML\DUMPED_MODEL.H_H


unsigned int C:\Users\PC-kun\Desktop\MoGlove ML\dumped_model.h_len = 8536;
unsigned char C:\Users\PC-kun\Desktop\MoGlove ML\dumped_model.h[] = {
 0x1c, 0x00, 0x00, 0x00, 0x54, 0x46, 0x4c, 0x33, 0x14, 0x00, 0x20, 0x00,
  0x1c, 0x00, 0x18, 0x00, 0x14, 0x00, 0x10, 0x00, 0x0c, 0x00, 0x00, 0x00,
  0x08, 0x00, 0x04, 0x00, 0x14, 0x00, 0x00, 0x00, 0x1c, 0x00, 0x00, 0x00,
  0x90, 0x00, 0x00, 0x00, 0xe8, 0x00, 0x00, 0x00, 0x80, 0x1a, 0x00, 0x00,
  0x90, 0x1a, 0x00, 0x00, 0x00, 0x21, 0x00, 0x00, 0x03, 0x00, 0x00, 0x00,
  0x01, 0x00, 0x00, 0x00, 0x10, 0x00, 0x00, 0x00, 0x00, 0x00, 0x0a, 0x00,
  0x10, 0x00, 0x0c, 0x00, 0x08, 0x00, 0x04, 0x00, 0x0a, 0x00, 0x00, 0x00,
  0x0c, 0x00, 0x00, 0x00, 0x1c, 0x00, 0x00, 0x00, 0x38, 0x00, 0x00, 0x00,
  0x0f, 0x00, 0x00, 0x00, 0x73, 0x65, 0x72, 0x76, 0x69, 0x6e, 0x67, 0x5f,
  0x64, 0x65, 0x66, 0x61, 0x75, 0x6c, 0x74, 0x00, 0x01, 0x00, 0x00, 0x00,
  0x04, 0x00, 0x00, 0x00, 0x98, 0xff, 0xff, 0xff, 0x0b, 0x00, 0x00, 0x00,
  0x04, 0x00, 0x00, 0x00, 0x07, 0x00, 0x00, 0x00, 0x64, 0x65, 0x6e, 0x73,
  0x65, 0x5f, 0x33, 0x00, 0x01, 0x00, 0x00, 0x00, 0x04, 0x00, 0x00, 0x00,
  0x0a, 0xe7, 0xff, 0xff, 0x04, 0x00, 0x00, 0x00, 0x0b, 0x00, 0x00, 0x00,
  0x64, 0x65, 0x6e, 0x73, 0x65, 0x5f, 0x69, 0x6e, 0x70, 0x75, 0x74, 0x00,
  0x02, 0x00, 0x00, 0x00, 0x34, 0x00, 0x00, 0x00, 0x04, 0x00, 0x00, 0x00,
  0xdc, 0xff, 0xff, 0xff, 0x0e, 0x00, 0x00, 0x00, 0x04, 0x00, 0x00, 0x00,
  0x13, 0x00, 0x00, 0x00, 0x43, 0x4f, 0x4e, 0x56, 0x45, 0x52, 0x53, 0x49,
  0x4f, 0x4e, 0x5f, 0x4d, 0x45, 0x54, 0x41, 0x44, 0x41, 0x54, 0x41, 0x00,
  0x08, 0x00, 0x0c, 0x00, 0x08, 0x00, 0x04, 0x00, 0x08, 0x00, 0x00, 0x00,
  0x0d, 0x00, 0x00, 0x00, 0x04, 0x00, 0x00, 0x00, 0x13, 0x00, 0x00, 0x00,
  0x6d, 0x69, 0x6e, 0x5f, 0x72, 0x75, 0x6e, 0x74, 0x69, 0x6d, 0x65, 0x5f,
  0x76, 0x65, 0x72, 0x73, 0x69, 0x6f, 0x6e, 0x00, 0x0f, 0x00, 0x00, 0x00,
  0x94, 0x19, 0x00, 0x00, 0x8c, 0x19, 0x00, 0x00, 0x7c, 0x18, 0x00, 0x00,
  0x64, 0x17, 0x00, 0x00, 0x54, 0x16, 0x00, 0x00, 0x40, 0x16, 0x00, 0x00,
  0xcc, 0x15, 0x00, 0x00, 0xbc, 0x10, 0x00, 0x00, 0xac, 0x00, 0x00, 0x00,
  0xa4, 0x00, 0x00, 0x00, 0x9c, 0x00, 0x00, 0x00, 0x94, 0x00, 0x00, 0x00,
  0x8c, 0x00, 0x00, 0x00, 0x6c, 0x00, 0x00, 0x00, 0x04, 0x00, 0x00, 0x00,
  0xbe, 0xe7, 0xff, 0xff, 0x04, 0x00, 0x00, 0x00, 0x58, 0x00, 0x00, 0x00,
  0x0c, 0x00, 0x00, 0x00, 0x08, 0x00, 0x0e, 0x00, 0x08, 0x00, 0x04, 0x00,
  0x08, 0x00, 0x00, 0x00, 0x10, 0x00, 0x00, 0x00, 0x28, 0x00, 0x00, 0x00,
  0x00, 0x00, 0x06, 0x00, 0x08, 0x00, 0x04, 0x00, 0x06, 0x00, 0x00, 0x00,
  0x04, 0x00, 0x00, 0x00, 0x01, 0x00, 0x00, 0x00, 0xea, 0x03, 0x00, 0x00,
  0x00, 0x00, 0x0a, 0x00, 0x10, 0x00, 0x0c, 0x00, 0x08, 0x00, 0x04, 0x00,
  0x0a, 0x00, 0x00, 0x00, 0x01, 0x00, 0x00, 0x00, 0x02, 0x00, 0x00, 0x00,
  0x04, 0x00, 0x00, 0x00, 0x06, 0x00, 0x00, 0x00, 0x32, 0x2e, 0x31, 0x32,
  0x2e, 0x30, 0x00, 0x00, 0x22, 0xe8, 0xff, 0xff, 0x04, 0x00, 0x00, 0x00,
  0x10, 0x00, 0x00, 0x00, 0x32, 0x2e, 0x33, 0x2e, 0x30, 0x00, 0x00, 0x00,
  0x00, 0x00, 0x00, 0x00, 0x00, 0x00, 0x00, 0x00, 0xd4, 0xe0, 0xff, 0xff,
  0xd8, 0xe0, 0xff, 0xff, 0xdc, 0xe0, 0xff, 0xff, 0xe0, 0xe0, 0xff, 0xff,
  0x4e, 0xe8, 0xff, 0xff, 0x04, 0x00, 0x00, 0x00, 0x00, 0x10, 0x00, 0x00,
  0xfe, 0x07, 0x01, 0x05, 0x0d, 0x04, 0x11, 0x03, 0xf9, 0x06, 0xfd, 0x01,
  0x00, 0xf4, 0x0a, 0x01, 0x03, 0x03, 0x01, 0x07, 0x01, 0xff, 0x02, 0xf9,
  0x00, 0x06, 0x01, 0xfe, 0x03, 0xfa, 0xf7, 0xfa, 0x0f, 0x05, 0x08, 0x01,
  0x18, 0x10, 0x03, 0xf7, 0x02, 0x00, 0x06, 0xfc, 0xfc, 0x11, 0x05, 0x03,
  0x05, 0xff, 0xf6, 0xf9, 0x00, 0x05, 0x00, 0x01, 0x00, 0xfb, 0xfb, 0x06,
  0x04, 0xdf, 0x06, 0xfa, 0x00, 0x06, 0x00, 0x05, 0x0b, 0xfe, 0x0e, 0xfd,
  0x0d, 0x06, 0xff, 0x04, 0xff, 0xfd, 0x08, 0xfd, 0x06, 0x06, 0x02, 0x07,
  0xfd, 0x03, 0x05, 0xf4, 0x04, 0x07, 0x06, 0xff, 0x06, 0xfc, 0x02, 0xfd,
  0x10, 0xff, 0x04, 0xfe, 0x19, 0x0e, 0x03, 0xfd, 0x09, 0x03, 0x07, 0x01,
  0x04, 0x09, 0xfe, 0x02, 0x00, 0x03, 0xf8, 0x00, 0x03, 0x00, 0x06, 0x03,
  0x06, 0xfa, 0x00, 0x07, 0xfc, 0xf6, 0x06, 0x04, 0xfd, 0x02, 0xe0, 0x00,
  0xd0, 0xfd, 0x05, 0xf5, 0xec, 0xf9, 0x03, 0xff, 0x00, 0x0e, 0x06, 0x03,
  0xf8, 0xf9, 0xfe, 0xf6, 0x0c, 0x02, 0x03, 0x02, 0xfd, 0x0e, 0x09, 0x11,
  0xff, 0x10, 0x00, 0x35, 0xff, 0xf2, 0xfb, 0xdb, 0x97, 0x0b, 0x02, 0x01,
  0xed, 0xfc, 0xf7, 0x00, 0xfb, 0xbb, 0x05, 0xfd, 0xe2, 0x08, 0x11, 0x05,
  0xfa, 0xf8, 0x06, 0x00, 0x00, 0xff, 0x98, 0x07, 0x0a, 0x31, 0x01, 0xff,
  0xff, 0xfc, 0xfd, 0xfd, 0xff, 0xff, 0x00, 0xfd, 0xfe, 0xff, 0xfe, 0x02,
  0x00, 0x03, 0xfd, 0xff, 0xfe, 0xfc, 0x00, 0xfd, 0x02, 0x00, 0xfd, 0xff,
  0x02, 0xfd, 0x03, 0xfd, 0xfe, 0xff, 0xfe, 0xfc, 0x02, 0x03, 0x02, 0x00,
  0x00, 0xfd, 0xfd, 0xfd, 0xfe, 0x00, 0x00, 0xfe, 0x01, 0xff, 0xfc, 0x00,
  0x00, 0xfe, 0xfd, 0x00, 0xfd, 0x02, 0x01, 0xff, 0x02, 0x00, 0x00, 0xfd,
  0x03, 0x02, 0x02, 0xfc, 0x0a, 0x0c, 0xde, 0x02, 0x04, 0xfe, 0x15, 0x05,
  0xf5, 0xfb, 0x03, 0xff, 0x09, 0x07, 0xfe, 0xfa, 0x05, 0x00, 0x00, 0x0d,
  0x0f, 0xff, 0x0b, 0xfa, 0x02, 0x09, 0xf7, 0x07, 0xee, 0xf9, 0xdd, 0xf6,
  0xf6, 0x04, 0x05, 0xe5, 0x1b, 0xfc, 0x05, 0xea, 0x04, 0x05, 0xe6, 0xf3,
  0x0f, 0x16, 0x09, 0x01, 0x04, 0x10, 0x0b, 0x08, 0x00, 0x05, 0x00, 0x03,
  0xfe, 0x05, 0x06, 0xf6, 0x07, 0xcd, 0xfc, 0x04, 0x00, 0x09, 0xff, 0x04,
  0x08, 0x03, 0x10, 0xff, 0x08, 0x07, 0x00, 0x01, 0x07, 0x00, 0x0b, 0x01,
  0x04, 0x07, 0x01, 0x01, 0xfe, 0x05, 0x00, 0xfb, 0xff, 0x04, 0x08, 0xff,
  0x0d, 0xfb, 0x01, 0xfb, 0x12, 0x04, 0x0a, 0x02, 0x15, 0x0d, 0x07, 0x00,
  0x0b, 0x01, 0x09, 0xfd, 0x02, 0x0b, 0x03, 0xfc, 0x06, 0x04, 0xfa, 0xfc,
  0x01, 0xff, 0x08, 0xfd, 0x04, 0xff, 0x02, 0x08, 0xfe, 0xfb, 0x04, 0x07,
  0xfe, 0xfc, 0x00, 0x02, 0x01, 0x02, 0xff, 0xfd, 0xfb, 0x00, 0xfe, 0xfd,
  0x00, 0x02, 0xfe, 0xfd, 0xfc, 0xfd, 0xff, 0xfc, 0xfc, 0xfd, 0x02, 0x00,
  0xfd, 0xfd, 0xfb, 0xfb, 0xfb, 0xfe, 0xfb, 0xfe, 0xfc, 0x00, 0x00, 0x01,
  0x01, 0xfe, 0x01, 0x02, 0xfe, 0x00, 0xff, 0x02, 0xfe, 0x02, 0xfd, 0x03,
  0x00, 0x00, 0x01, 0x04, 0xff, 0xfc, 0x02, 0xff, 0x00, 0x01, 0xff, 0x01,
  0x03, 0x01, 0xfe, 0x02, 0xfe, 0xff, 0x02, 0x00, 0x02, 0x00, 0xff, 0xfe,
  0xfe, 0xfd, 0xfe, 0xfc, 0xfc, 0x00, 0xfe, 0x00, 0x02, 0x03, 0xfe, 0x02,
  0x01, 0x03, 0xfd, 0xfd, 0xfd, 0xfc, 0xfe, 0x00, 0xfe, 0x00, 0xfe, 0x02,
  0xfd, 0xfd, 0xfd, 0x03, 0xfc, 0x00, 0x03, 0x02, 0xfd, 0x01, 0xfe, 0x01,
  0x01, 0xfd, 0x02, 0xfe, 0x01, 0xff, 0xff, 0xfd, 0xfc, 0x01, 0xfe, 0x00,
  0xfd, 0xfd, 0x01, 0x01, 0xfe, 0xfe, 0xfe, 0x02, 0x00, 0x09, 0xff, 0x01,
  0x0f, 0x04, 0x0c, 0x00, 0x08, 0x09, 0x02, 0x02, 0x04, 0xff, 0x0b, 0x02,
  0x02, 0x05, 0xfd, 0x03, 0xfc, 0x05, 0x07, 0xf7, 0x04, 0x07, 0x0c, 0x04,
  0x09, 0xfd, 0x01, 0xfb, 0x10, 0x06, 0x06, 0x03, 0x15, 0x10, 0x02, 0xfc,
  0x0a, 0x06, 0x09, 0x02, 0x02, 0x0b, 0x05, 0x01, 0x03, 0x07, 0x00, 0x00,
  0x06, 0x01, 0x06, 0xfd, 0x08, 0xff, 0x01, 0x06, 0x00, 0xf7, 0x03, 0x07,
  0x08, 0xfe, 0x04, 0xe2, 0x0a, 0xce, 0xe6, 0xe7, 0xf6, 0xfc, 0xfe, 0xf0,
  0xb3, 0xf7, 0xf6, 0xfe, 0xf3, 0xed, 0xdd, 0xfb, 0x0d, 0x05, 0xce, 0xf0,
  0x01, 0xab, 0xe9, 0x07, 0xf1, 0x0e, 0x0c, 0xfc, 0x09, 0x04, 0xfb, 0x07,
  0xf8, 0x04, 0xc2, 0xd4, 0xd3, 0xe3, 0x0c, 0xe2, 0xf0, 0x00, 0xe8, 0xeb,
  0x06, 0x13, 0x06, 0xf1, 0xfd, 0xde, 0xf5, 0xf3, 0x05, 0xf9, 0x9e, 0x08,
  0xfe, 0x0c, 0xd9, 0xfa, 0x00, 0x03, 0x01, 0x02, 0x02, 0xfe, 0x00, 0x02,
  0xfd, 0xfb, 0xfd, 0xfc, 0x02, 0x00, 0xfb, 0x01, 0x02, 0x02, 0xff, 0x01,
  0x00, 0x00, 0xfc, 0x00, 0xfe, 0xfc, 0xff, 0xfe, 0x01, 0xfc, 0x00, 0xfd,
  0x01, 0x00, 0x02, 0xfe, 0xfd, 0xfb, 0x02, 0xff, 0xfe, 0xfd, 0xff, 0xfe,
  0x00, 0xfc, 0xfd, 0x02, 0xfe, 0xfd, 0xfd, 0x00, 0xfd, 0xff, 0x00, 0xfb,
  0x02, 0x02, 0xfd, 0x00, 0xfc, 0xfd, 0x01, 0xfc, 0x07, 0x0e, 0x07, 0x01,
  0x0c, 0xff, 0x11, 0xff, 0x0d, 0x05, 0xfd, 0x06, 0x08, 0xfd, 0x0c, 0x02,
  0x03, 0x0a, 0xfd, 0x02, 0xfc, 0x06, 0x01, 0xf9, 0x00, 0x07, 0x0c, 0x02,
  0x08, 0xfc, 0xff, 0xfe, 0x11, 0x02, 0x06, 0x01, 0x1a, 0x0a, 0x08, 0x00,
  0x0c, 0x02, 0x04, 0xff, 0x04, 0x0f, 0x03, 0xfd, 0x01, 0x08, 0xff, 0x01,
  0x00, 0x04, 0x06, 0x02, 0x07, 0xfb, 0x03, 0x09, 0x01, 0xf7, 0x04, 0x04,
  0xfa, 0x0d, 0xfc, 0x00, 0x0d, 0xfc, 0x0d, 0x23, 0x02, 0xef, 0xfd, 0x02,
  0x00, 0x09, 0x09, 0xfd, 0x0a, 0xf3, 0x02, 0x08, 0x04, 0xff, 0xff, 0x0a,
  0x03, 0xfd, 0x08, 0xf3, 0xe8, 0xff, 0xfc, 0xde, 0x0b, 0x04, 0xde, 0x0d,
  0x31, 0x13, 0xfe, 0xf4, 0x0c, 0x00, 0x03, 0x02, 0x21, 0x21, 0x06, 0x08,
  0x10, 0xfd, 0xe8, 0x08, 0x00, 0x11, 0x0b, 0x03, 0x03, 0xf2, 0xf9, 0xf0,
  0xe3, 0xfc, 0xf9, 0x02, 0x06, 0xf5, 0x08, 0x0a, 0xdd, 0x04, 0xf1, 0xf7,
  0xee, 0xfd, 0x03, 0x02, 0x03, 0x13, 0xf4, 0x04, 0xfc, 0x02, 0x02, 0xfa,
  0x0d, 0xfd, 0x00, 0x03, 0xff, 0x04, 0xf5, 0x0f, 0x04, 0xf2, 0x09, 0x1b,
  0xf8, 0xa9, 0xf9, 0x03, 0xeb, 0xec, 0x03, 0x0c, 0xee, 0x0b, 0xf5, 0x0c,
  0xf4, 0xf3, 0x04, 0xf7, 0xf3, 0x08, 0x01, 0xfa, 0xfb, 0x01, 0x07, 0x01,
  0x08, 0x0c, 0xd2, 0xf8, 0x04, 0x1b, 0xff, 0xf6, 0x07, 0x11, 0xe9, 0x03,
  0x0b, 0xf5, 0xeb, 0x09, 0xf0, 0x07, 0xfe, 0xfc, 0xfe, 0x06, 0xed, 0x00,
  0x0f, 0x0a, 0x0c, 0x02, 0xf9, 0x09, 0xfa, 0xf7, 0xfe, 0xf7, 0xe3, 0x07,
  0xef, 0x00, 0x38, 0xed, 0x09, 0x1e, 0xff, 0xf4, 0xff, 0x0e, 0xf9, 0xc6,
  0xe3, 0x0c, 0x07, 0xfe, 0x23, 0xff, 0xf0, 0x02, 0x0c, 0xfe, 0xe8, 0xe6,
  0x01, 0x0e, 0x00, 0xff, 0xf4, 0xf9, 0x0f, 0xe5, 0x12, 0xf6, 0xde, 0x09,
  0xfd, 0x07, 0x04, 0x03, 0x0c, 0x02, 0x0c, 0xfe, 0x0a, 0xfe, 0xfd, 0x02,
  0x00, 0xfb, 0x04, 0x00, 0x05, 0x00, 0xf8, 0xff, 0xf4, 0xfc, 0x01, 0xf4,
  0x00, 0xfd, 0x03, 0xfe, 0xfe, 0xf8, 0x02, 0xee, 0x02, 0xf8, 0x03, 0xf3,
  0x0e, 0x0c, 0xfd, 0xf8, 0x11, 0x00, 0x03, 0x01, 0xfb, 0x0c, 0xfd, 0x04,
  0xfb, 0xf6, 0xf5, 0x08, 0xfd, 0x01, 0x01, 0x00, 0xfe, 0xfb, 0xf5, 0x08,
  0xfe, 0xe5, 0x01, 0xfd, 0xff, 0x03, 0x02, 0x02, 0x00, 0xfd, 0xfd, 0xfd,
  0xfd, 0xfd, 0x03, 0xff, 0x03, 0xfe, 0xff, 0xfe, 0xfb, 0xff, 0xff, 0xfd,
  0x03, 0xfc, 0x00, 0x01, 0x02, 0x01, 0x03, 0x03, 0x02, 0xfd, 0xfe, 0xff,
  0x00, 0xfe, 0xff, 0x02, 0xff, 0xfe, 0xfd, 0xfd, 0xfe, 0xff, 0xfd, 0x03,
  0xfe, 0x01, 0xfc, 0xff, 0xfd, 0xfc, 0x01, 0xff, 0xfb, 0xff, 0xfe, 0x00,
  0x02, 0x02, 0xfd, 0xfe, 0xfe, 0x00, 0x00, 0xff, 0x00, 0xdf, 0xfd, 0x02,
  0x0a, 0x01, 0x14, 0xf6, 0x02, 0x04, 0xff, 0x04, 0x02, 0xf6, 0x06, 0xf8,
  0xf2, 0x01, 0xf5, 0x0f, 0xf8, 0xfb, 0xff, 0xec, 0x03, 0xfc, 0x0c, 0xf6,
  0x08, 0x0a, 0xfd, 0xe2, 0x08, 0xfe, 0xff, 0xef, 0x0d, 0x14, 0xff, 0x00,
  0x04, 0x02, 0xfa, 0x00, 0xe9, 0x08, 0x03, 0x09, 0x05, 0x01, 0xe3, 0xe7,
  0x00, 0xf5, 0x03, 0x03, 0xfc, 0xfb, 0xf9, 0xfc, 0x01, 0xd1, 0x01, 0x08,
  0x07, 0x0b, 0x05, 0x00, 0x0d, 0xfd, 0x0b, 0x01, 0x0c, 0x05, 0x00, 0x04,
  0x06, 0x01, 0x09, 0x04, 0x06, 0x09, 0xfe, 0x07, 0xfd, 0x08, 0x03, 0xf8,
  0xfe, 0x02, 0x08, 0xfd, 0x0c, 0xfc, 0x00, 0x01, 0x11, 0x05, 0x07, 0x00,
  0x15, 0x0b, 0x06, 0xfe, 0x0e, 0x00, 0x04, 0x01, 0x02, 0x07, 0x04, 0x01,
  0x04, 0x07, 0xfb, 0x01, 0x05, 0x02, 0x03, 0x01, 0x05, 0xf8, 0xff, 0x0b,
  0x03, 0xfb, 0x07, 0x04, 0xfe, 0x13, 0x03, 0xff, 0x15, 0x00, 0x16, 0x07,
  0xf8, 0x04, 0xff, 0x01, 0xfb, 0xff, 0x09, 0x07, 0x04, 0x00, 0xff, 0x0a,
  0xf5, 0x02, 0xfa, 0x0b, 0x02, 0xff, 0xff, 0x09, 0xfe, 0xfc, 0xf2, 0xfe,
  0x17, 0x04, 0x03, 0x00, 0x20, 0x1b, 0xfa, 0xee, 0xfb, 0xfe, 0x13, 0x00,
  0xfb, 0x28, 0x00, 0xfc, 0x06, 0xf9, 0xfb, 0x01, 0x08, 0xfb, 0x08, 0xfe,
  0x08, 0xd5, 0x00, 0x02, 0x02, 0xfa, 0xfb, 0x05, 0x04, 0x09, 0x00, 0x05,
  0x08, 0x02, 0x0e, 0x01, 0x0d, 0x04, 0x04, 0x03, 0x05, 0x00, 0x0a, 0xfe,
  0x04, 0x03, 0xfd, 0x03, 0xfc, 0x00, 0x05, 0xf7, 0x03, 0x00, 0x0b, 0x00,
  0x0c, 0xf9, 0x00, 0xfd, 0x0c, 0x04, 0x05, 0xff, 0x16, 0x0c, 0x00, 0xfd,
  0x0a, 0x00, 0x03, 0xfd, 0xff, 0x07, 0x02, 0x01, 0xfe, 0x06, 0xfd, 0xfc,
  0x05, 0xff, 0x03, 0x00, 0x02, 0xfc, 0xff, 0x04, 0xfe, 0xf8, 0x02, 0x00,
  0x01, 0x03, 0xce, 0x02, 0x0b, 0xfe, 0x10, 0xff, 0xfc, 0x07, 0x01, 0x06,
  0x03, 0xfe, 0x09, 0xfb, 0x00, 0x08, 0x02, 0x08, 0xff, 0x01, 0x06, 0xfb,
  0x01, 0x03, 0x08, 0xff, 0x09, 0xf1, 0xfc, 0xfb, 0x0b, 0xff, 0x07, 0xed,
  0x1c, 0x09, 0x06, 0xfc, 0x02, 0x02, 0x00, 0xfc, 0x02, 0x0d, 0x03, 0x02,
  0xfc, 0xfd, 0xf9, 0xff, 0xfe, 0x01, 0x06, 0x00, 0x02, 0x00, 0xfe, 0x01,
  0x03, 0xdb, 0x02, 0x02, 0x01, 0xf4, 0xfd, 0x02, 0xeb, 0x03, 0xf7, 0xd4,
  0xfa, 0x03, 0x00, 0x03, 0x03, 0x0d, 0xff, 0x0b, 0xf5, 0xfb, 0xc0, 0xf7,
  0x09, 0x05, 0x03, 0x06, 0x02, 0x0a, 0xfa, 0x1e, 0x02, 0xed, 0x06, 0x26,
  0xff, 0xf6, 0x04, 0xe0, 0x98, 0xfe, 0xff, 0x08, 0xfe, 0x03, 0xfb, 0x06,
  0xc8, 0xb5, 0xfd, 0x97, 0xc7, 0x0c, 0x18, 0xf3, 0x0b, 0xab, 0xfa, 0x02,
  0x0a, 0x1e, 0xd5, 0xfd, 0xe9, 0x19, 0x06, 0xfe, 0xfb, 0x03, 0xea, 0xf7,
  0x09, 0x03, 0x0c, 0x0f, 0xfc, 0xfb, 0xff, 0xf8, 0xf6, 0xff, 0xf2, 0xff,
  0x0d, 0xfd, 0x0f, 0x08, 0xff, 0xfc, 0xfe, 0x26, 0x02, 0x02, 0x01, 0x03,
  0xf9, 0x09, 0x09, 0xfb, 0xf5, 0x18, 0x00, 0x0e, 0x1f, 0x14, 0xfc, 0xdb,
  0xfc, 0xf1, 0x00, 0xe6, 0x1a, 0x27, 0xf4, 0x0e, 0x0d, 0xfb, 0xf9, 0x09,
  0xfc, 0x11, 0xe4, 0x02, 0xed, 0x02, 0x13, 0x06, 0x08, 0xa7, 0x00, 0x06,
  0xfc, 0x01, 0x02, 0x03, 0x00, 0x01, 0x00, 0x00, 0x02, 0x03, 0x04, 0xfe,
  0x02, 0xfc, 0x00, 0xff, 0x02, 0x01, 0xfe, 0xfc, 0xfc, 0xfd, 0xff, 0x00,
  0x01, 0xfc, 0xfe, 0x00, 0x03, 0xff, 0x03, 0xfd, 0xfe, 0xfe, 0xfd, 0x02,
  0x02, 0x01, 0xff, 0xff, 0x00, 0x00, 0xfe, 0xff, 0xff, 0xfd, 0x00, 0x01,
  0x01, 0xfc, 0xfd, 0x00, 0x00, 0x01, 0xfd, 0x01, 0xfd, 0x00, 0x02, 0x02,
  0xff, 0xfe, 0xfe, 0x01, 0xff, 0xf8, 0xbd, 0xfe, 0x14, 0xfc, 0x26, 0x09,
  0x01, 0x01, 0xff, 0xfd, 0xfd, 0x08, 0x0b, 0x04, 0xfe, 0x00, 0x02, 0x01,
  0xf3, 0x03, 0x01, 0x03, 0xfe, 0xfa, 0xf7, 0xff, 0xf6, 0xed, 0xea, 0xd5,
  0x06, 0xfb, 0x07, 0xcf, 0x22, 0x05, 0x01, 0xf5, 0xfb, 0x00, 0x0c, 0x02,
  0x07, 0x21, 0x00, 0xff, 0xfd, 0xf2, 0xfb, 0x00, 0x00, 0x02, 0x01, 0xff,
  0xed, 0x10, 0x02, 0x00, 0x06, 0xcf, 0xfc, 0x02, 0x02, 0xff, 0x02, 0x00,
  0xfd, 0xff, 0xfd, 0xfd, 0xfe, 0xff, 0x03, 0xfe, 0xfd, 0xfe, 0xff, 0x01,
  0x01, 0xfc, 0xfd, 0x04, 0xff, 0xfd, 0xfe, 0xfc, 0xfd, 0xfd, 0xfe, 0xfc,
  0xfd, 0xfd, 0xfe, 0xfe, 0x03, 0xfd, 0xfd, 0xfd, 0xff, 0x00, 0xff, 0xfe,
  0x03, 0xfd, 0x03, 0x02, 0x02, 0xfd, 0xff, 0xfd, 0x01, 0x01, 0xfc, 0xfc,
  0xfe, 0x01, 0xfc, 0xfd, 0x02, 0xfe, 0x03, 0xfd, 0xfe, 0x01, 0xfc, 0x00,
  0x06, 0x0c, 0x08, 0x01, 0x12, 0x05, 0x09, 0x1c, 0x05, 0x06, 0x00, 0x01,
  0xf4, 0xf2, 0x05, 0x01, 0x17, 0x09, 0xee, 0x13, 0xfc, 0x03, 0xf8, 0x00,
  0x02, 0xfd, 0xf7, 0xfd, 0xf0, 0x00, 0xfe, 0xd9, 0x03, 0x07, 0xf2, 0x09,
  0x2f, 0xfe, 0xf6, 0xfd, 0x05, 0xfe, 0x09, 0x09, 0x1f, 0x2e, 0xf7, 0xed,
  0x04, 0x04, 0xf7, 0xfd, 0x01, 0xf6, 0x02, 0xfc, 0x01, 0xfb, 0x03, 0xf9,
  0x08, 0xec, 0x05, 0xf9, 0x01, 0xff, 0xff, 0xfe, 0xfe, 0xff, 0xfd, 0xfe,
  0xfe, 0x00, 0x02, 0xfd, 0xfc, 0xfe, 0x04, 0xfd, 0xfb, 0x02, 0x01, 0x02,
  0xfd, 0xfc, 0xfd, 0x02, 0x00, 0xfe, 0x02, 0xfe, 0x01, 0xff, 0xfe, 0xfe,
  0xff, 0x02, 0xfd, 0x02, 0x01, 0x00, 0xfd, 0xff, 0xfc, 0xfb, 0x00, 0xff,
  0x03, 0x02, 0xff, 0xfe, 0x02, 0xfc, 0x01, 0xfe, 0x00, 0xfe, 0x01, 0xff,
  0xfd, 0x00, 0xfd, 0xfd, 0xff, 0x00, 0xfd, 0x02, 0xff, 0xfc, 0xfe, 0xfc,
  0xff, 0xfc, 0xff, 0x01, 0xfe, 0x00, 0x03, 0xfd, 0x00, 0x00, 0x02, 0xfb,
  0x02, 0xfb, 0xff, 0xfe, 0xfd, 0xff, 0xfc, 0xff, 0xfe, 0xfe, 0x00, 0x03,
  0xfd, 0xfe, 0xfe, 0x01, 0x00, 0xfd, 0x03, 0x01, 0x00, 0xfd, 0xfc, 0xff,
  0x01, 0x01, 0x03, 0x02, 0xff, 0x02, 0x01, 0xfd, 0x01, 0xfe, 0x00, 0x03,
  0xfe, 0xff, 0x03, 0x01, 0xfc, 0xff, 0x03, 0xff, 0x00, 0xfe, 0xfd, 0xff,
  0xfc, 0x00, 0xff, 0x01, 0xfe, 0xfd, 0x02, 0xfd, 0x01, 0xfd, 0x01, 0xfe,
  0xff, 0xfc, 0x01, 0xfd, 0x02, 0x02, 0x01, 0x00, 0xfd, 0xfd, 0xfe, 0xfe,
  0xfd, 0xff, 0xfd, 0xff, 0x03, 0xfd, 0x01, 0xfd, 0x03, 0xfd, 0xfd, 0x01,
  0xfe, 0x02, 0x02, 0xfc, 0xfd, 0xff, 0xff, 0x00, 0x00, 0x00, 0x03, 0x00,
  0xff, 0xfe, 0x02, 0xfd, 0x00, 0xff, 0xfd, 0x03, 0xff, 0x02, 0xff, 0x01,
  0x01, 0x03, 0xfd, 0xfe, 0x03, 0x0a, 0x03, 0x04, 0x0d, 0xff, 0x0f, 0xff,
  0x08, 0x09, 0x03, 0xff, 0x01, 0x00, 0x0a, 0x02, 0x03, 0x03, 0x00, 0x05,
  0xfa, 0x07, 0x03, 0xfb, 0x01, 0x01, 0x0d, 0xfe, 0x08, 0xfa, 0xff, 0xfd,
  0x12, 0x01, 0x06, 0x01, 0x16, 0x0f, 0x06, 0xfc, 0x09, 0x01, 0x03, 0x03,
  0x01, 0x08, 0x00, 0xfe, 0x02, 0x01, 0xfd, 0xfd, 0xff, 0xfd, 0x07, 0xff,
  0x06, 0xfb, 0x00, 0x09, 0x00, 0xf8, 0x08, 0x06, 0x02, 0x0b, 0x00, 0x06,
  0x10, 0x03, 0x13, 0xfc, 0x08, 0x07, 0xfe, 0xfe, 0x07, 0x02, 0x09, 0x03,
  0x01, 0x03, 0x02, 0x07, 0x02, 0x05, 0x06, 0xf6, 0xff, 0x08, 0x0e, 0x01,
  0x0d, 0xf9, 0xfe, 0xfe, 0x13, 0x02, 0x08, 0xfe, 0x1b, 0x0f, 0x07, 0xfc,
  0x0a, 0x03, 0x07, 0x01, 0x01, 0x0a, 0x04, 0xfd, 0x02, 0x03, 0xff, 0x02,
  0x01, 0x02, 0x07, 0xff, 0x06, 0xfb, 0xfd, 0x0b, 0x00, 0xfc, 0x09, 0x04,
  0x03, 0x07, 0x02, 0x04, 0x0c, 0x02, 0x11, 0xfe, 0x0d, 0x07, 0xfe, 0x02,
  0x07, 0x03, 0x0a, 0x02, 0xff, 0x02, 0x02, 0x01, 0xfc, 0x06, 0x05, 0xf7,
  0x01, 0x04, 0x0b, 0xff, 0x09, 0xfd, 0x01, 0xfa, 0x13, 0x06, 0x09, 0xff,
  0x18, 0x11, 0x02, 0xfc, 0x0d, 0xff, 0x02, 0x01, 0x00, 0x0b, 0x05, 0xfe,
  0x06, 0x05, 0xfa, 0xff, 0x03, 0xff, 0x07, 0x02, 0x07, 0xfd, 0xfd, 0x09,
  0x00, 0xf9, 0x05, 0x05, 0xf4, 0x18, 0x0b, 0x04, 0x0c, 0x03, 0x23, 0xfe,
  0x02, 0xf8, 0xfe, 0x02, 0xf8, 0x04, 0x07, 0x00, 0x0d, 0xf5, 0xe5, 0xfe,
  0x06, 0xf8, 0xf5, 0x13, 0x04, 0x13, 0xeb, 0x07, 0x05, 0xfb, 0x05, 0xfe,
  0x0c, 0xfb, 0xf6, 0x09, 0x2b, 0x18, 0xe5, 0xff, 0x11, 0x04, 0x10, 0x03,
  0x1d, 0x2b, 0xff, 0xd6, 0xfe, 0xfd, 0xf2, 0x0c, 0xfa, 0xf6, 0x13, 0x01,
  0x02, 0x05, 0xf8, 0x25, 0x06, 0xf3, 0x02, 0xeb, 0x01, 0x02, 0xff, 0xfd,
  0xfd, 0x01, 0x00, 0x01, 0xfd, 0xfc, 0xfe, 0x00, 0xfe, 0xfd, 0x01, 0xff,
  0xfd, 0xff, 0xff, 0xfd, 0xff, 0x01, 0x00, 0x00, 0xff, 0xfd, 0x03, 0x02,
  0x01, 0x01, 0xfd, 0xfc, 0xfe, 0x01, 0x01, 0xfd, 0xfc, 0x00, 0x02, 0xfe,
  0x01, 0xfe, 0x01, 0x02, 0x01, 0x00, 0xfe, 0xfb, 0xfc, 0x02, 0xfc, 0xfd,
  0x01, 0x03, 0xfc, 0x01, 0xfd, 0xfd, 0x01, 0x01, 0xfc, 0x02, 0xfe, 0xff,
  0x06, 0xe4, 0x01, 0x01, 0xe6, 0x04, 0xec, 0x01, 0xe2, 0x02, 0x02, 0x03,
  0x05, 0x02, 0x03, 0xfa, 0xf6, 0x06, 0x01, 0xff, 0x11, 0x03, 0x02, 0x02,
  0x02, 0x00, 0x00, 0x02, 0x04, 0x09, 0x00, 0x08, 0xfc, 0x06, 0xff, 0xde,
  0xa1, 0xf4, 0x00, 0x1d, 0x9d, 0x04, 0xf5, 0x0e, 0x00, 0xd0, 0x08, 0x04,
  0x01, 0xff, 0x07, 0xfe, 0xfb, 0xfe, 0xff, 0x00, 0x02, 0x06, 0x04, 0xf3,
  0xfb, 0x2a, 0x03, 0xff, 0x02, 0x0c, 0x06, 0x05, 0x0b, 0x01, 0x0e, 0x01,
  0x07, 0x07, 0x00, 0xfe, 0x04, 0x02, 0x0c, 0x04, 0x05, 0x05, 0x00, 0x03,
  0x00, 0x06, 0x06, 0xf6, 0xfe, 0x01, 0x0b, 0xfe, 0x08, 0xf8, 0xff, 0xfd,
  0x0b, 0xff, 0x03, 0x02, 0x19, 0x0f, 0x00, 0xfc, 0x0c, 0x02, 0x07, 0x01,
  0x00, 0x0b, 0xff, 0x01, 0xff, 0x05, 0xf9, 0xfc, 0x00, 0x00, 0x03, 0x03,
  0x01, 0xfc, 0xfc, 0x05, 0x03, 0xf7, 0x08, 0x05, 0x02, 0xfe, 0xfb, 0xff,
  0x02, 0xfe, 0x01, 0x03, 0xff, 0xff, 0x00, 0xfc, 0xff, 0xfc, 0xfd, 0xfe,
  0xfe, 0x03, 0x02, 0xfc, 0x00, 0xff, 0xfd, 0xfb, 0x02, 0xfd, 0xfe, 0x00,
  0xfd, 0x03, 0xfe, 0xfe, 0x02, 0xfc, 0xfe, 0x03, 0x02, 0xfe, 0xfc, 0x02,
  0x01, 0xfd, 0xfc, 0x00, 0x02, 0x02, 0x00, 0xfd, 0x00, 0xff, 0x00, 0xfb,
  0xfd, 0xff, 0x03, 0xfe, 0xfc, 0x00, 0x00, 0xff, 0x00, 0x01, 0xff, 0x01,
  0x00, 0x0d, 0x02, 0x02, 0x0e, 0xfa, 0x20, 0x0b, 0xf6, 0x06, 0x04, 0xff,
  0xfc, 0x0c, 0x08, 0x04, 0x06, 0x01, 0x02, 0x05, 0xf9, 0x03, 0x01, 0x0c,
  0x01, 0xfd, 0xff, 0x04, 0xf9, 0xf8, 0xf2, 0x01, 0x10, 0x01, 0xfd, 0xff,
  0x1c, 0x12, 0xff, 0xea, 0xf5, 0xfd, 0x0f, 0xfd, 0x08, 0x25, 0xfc, 0x03,
  0x01, 0x00, 0xfd, 0x02, 0x07, 0x03, 0x0a, 0xfc, 0x0e, 0xfb, 0xfb, 0x01,
  0x00, 0xfa, 0xf8, 0x01, 0xfc, 0xfe, 0xfc, 0xfc, 0x01, 0x02, 0x00, 0xfd,
  0xff, 0xff, 0x02, 0xfd, 0xfe, 0xfe, 0x00, 0x03, 0x03, 0xff, 0x01, 0xfe,
  0xfd, 0x00, 0x00, 0x00, 0x02, 0xff, 0xfc, 0x00, 0x00, 0x02, 0x02, 0xff,
  0xfc, 0xfe, 0xfe, 0x00, 0x00, 0x00, 0xfe, 0xfe, 0x02, 0xfd, 0xfc, 0x02,
  0x02, 0x00, 0x02, 0x01, 0x02, 0xfe, 0x00, 0xfc, 0x01, 0x01, 0x01, 0x03,
  0x00, 0xff, 0x02, 0xfe, 0x00, 0xff, 0xff, 0x00, 0x0a, 0x05, 0xfc, 0xfd,
  0x13, 0x04, 0x09, 0xff, 0x09, 0x03, 0x03, 0xfb, 0x02, 0xf5, 0xff, 0xfb,
  0x03, 0x03, 0xff, 0x04, 0xfe, 0x06, 0x09, 0xf4, 0x03, 0x03, 0x06, 0x03,
  0x0a, 0xf9, 0xf8, 0xd6, 0x01, 0x06, 0x0b, 0xf5, 0x1d, 0xf7, 0x08, 0xfc,
  0x0a, 0xff, 0x05, 0xfd, 0x06, 0x13, 0xff, 0x02, 0x04, 0x01, 0xf8, 0xfd,
  0x02, 0x02, 0xfb, 0x01, 0xf1, 0x01, 0x01, 0x08, 0x04, 0xde, 0x08, 0xfe,
  0xfc, 0x00, 0xfd, 0x02, 0xfe, 0xfc, 0x00, 0x03, 0x00, 0x00, 0xff, 0x03,
  0xff, 0x01, 0xfe, 0xfd, 0x03, 0x02, 0xfd, 0x00, 0x03, 0xff, 0xfd, 0x00,
  0xfe, 0xfe, 0x01, 0x02, 0xff, 0xfc, 0x00, 0x00, 0x01, 0x01, 0x01, 0xff,
  0x02, 0xff, 0xff, 0xfd, 0x02, 0xff, 0xfc, 0xff, 0x03, 0x03, 0xfd, 0xff,
  0x00, 0x01, 0xfc, 0xfd, 0x00, 0xfe, 0x01, 0x01, 0xfe, 0x02, 0xff, 0xfc,
  0xfe, 0x01, 0xfe, 0xfc, 0xfc, 0x03, 0xfe, 0x01, 0x0a, 0x01, 0x0c, 0xfb,
  0x09, 0xff, 0x00, 0x03, 0x01, 0x00, 0x06, 0xfc, 0x00, 0x01, 0xfe, 0xf1,
  0xfa, 0xff, 0x03, 0xf2, 0x02, 0xfd, 0x01, 0xfc, 0x06, 0xf4, 0x01, 0xf2,
  0x07, 0xf7, 0x02, 0xf5, 0x0d, 0x0c, 0xf9, 0xfa, 0x0f, 0xff, 0x05, 0x00,
  0x01, 0x01, 0xfc, 0x00, 0xf2, 0xf9, 0xf3, 0x0b, 0xfe, 0xfe, 0xfe, 0x00,
  0x00, 0xf8, 0xf4, 0x05, 0x08, 0xe7, 0xff, 0xf8, 0xfc, 0xfc, 0xfd, 0xfc,
  0xfd, 0xff, 0x02, 0x03, 0xfc, 0x02, 0xff, 0xfc, 0x02, 0xfd, 0x02, 0xff,
  0xfd, 0xfc, 0x02, 0xfe, 0xfd, 0xfe, 0x00, 0x03, 0xfe, 0x00, 0xff, 0x02,
  0x01, 0x04, 0xfb, 0xfe, 0xff, 0x02, 0xfc, 0xfd, 0xff, 0x00, 0x01, 0x03,
  0x03, 0xff, 0xff, 0x00, 0xfc, 0x02, 0xfc, 0x01, 0xfe, 0x01, 0x01, 0x01,
  0x02, 0x01, 0x00, 0x00, 0xff, 0xfd, 0xff, 0x02, 0x02, 0x02, 0x01, 0xfc,
  0x03, 0xfd, 0xfe, 0xf8, 0x1b, 0xf8, 0x0a, 0xd9, 0x05, 0x0a, 0x00, 0xfe,
  0xe6, 0x03, 0xf7, 0x0c, 0x08, 0x08, 0xbb, 0x33, 0xfd, 0x0a, 0xdf, 0xf0,
  0xfc, 0xeb, 0x1b, 0xfe, 0xfc, 0xf0, 0x03, 0xfd, 0xfa, 0x04, 0x03, 0xfc,
  0x18, 0x03, 0xf4, 0xf5, 0xfe, 0xf6, 0x13, 0xf4, 0xe0, 0x1f, 0xbc, 0xb2,
  0x03, 0xff, 0x15, 0xf3, 0x0c, 0xd0, 0xef, 0xf5, 0x06, 0xd8, 0xfd, 0x0f,
  0xf0, 0xfe, 0xf0, 0x19, 0xfa, 0xfc, 0xfd, 0x05, 0xfb, 0x01, 0x12, 0xd6,
  0x02, 0xff, 0xff, 0x02, 0x04, 0x02, 0xfc, 0xef, 0xf9, 0x05, 0x01, 0x11,
  0xf2, 0x03, 0x01, 0xf7, 0xff, 0xf7, 0x0f, 0xde, 0x04, 0xf5, 0x03, 0xe1,
  0xfb, 0x00, 0x03, 0x00, 0x0d, 0x09, 0x04, 0x08, 0x03, 0x03, 0xf9, 0x04,
  0xec, 0x0d, 0x07, 0xf9, 0x00, 0xf8, 0xe0, 0xfa, 0x01, 0x02, 0x00, 0x00,
  0xcd, 0xf3, 0x00, 0xfb, 0x04, 0xd5, 0x04, 0x0a, 0x06, 0x08, 0x03, 0x02,
  0x08, 0x04, 0x10, 0x00, 0x0e, 0x09, 0x00, 0x03, 0x03, 0xfe, 0x08, 0x03,
  0x01, 0x07, 0x02, 0x06, 0xfc, 0x03, 0x03, 0xfa, 0x03, 0x04, 0x08, 0x02,
  0x0a, 0xfa, 0x01, 0xfa, 0x0c, 0x01, 0x0a, 0x01, 0x15, 0x10, 0x01, 0xff,
  0x0b, 0x02, 0x07, 0x03, 0x02, 0x08, 0x04, 0x02, 0x03, 0x06, 0xff, 0xff,
  0x05, 0x02, 0x07, 0x03, 0x05, 0xf8, 0xfc, 0x0a, 0x02, 0xfb, 0x03, 0x00,
  0xfd, 0x09, 0xc5, 0x04, 0x0d, 0x00, 0x10, 0x02, 0xff, 0x07, 0xff, 0x01,
  0x03, 0xf6, 0x07, 0xfd, 0x06, 0x08, 0x00, 0x01, 0xf8, 0xff, 0x01, 0xf6,
  0x00, 0x08, 0x01, 0xfe, 0x02, 0xef, 0xf6, 0xff, 0x11, 0x02, 0x06, 0xe9,
  0x18, 0x0d, 0x02, 0xfb, 0x09, 0x06, 0xff, 0xff, 0xfa, 0x11, 0x02, 0x01,
  0x01, 0x03, 0xf2, 0xfc, 0xfa, 0x05, 0xfe, 0x01, 0x00, 0x00, 0xfe, 0x06,
  0xff, 0xe2, 0x06, 0xfd, 0x02, 0x0c, 0x01, 0x02, 0x0b, 0xff, 0x11, 0x00,
  0x08, 0x07, 0x03, 0x04, 0x04, 0x03, 0x09, 0x02, 0x06, 0x03, 0x04, 0x06,
  0xfe, 0x08, 0x04, 0xf5, 0x01, 0x05, 0x0b, 0x00, 0x0a, 0xfb, 0x01, 0xfd,
  0x0f, 0xff, 0x08, 0x03, 0x15, 0x11, 0x04, 0xfc, 0x0e, 0x04, 0x08, 0x00,
  0x00, 0x09, 0x02, 0x04, 0x06, 0x09, 0xfa, 0x00, 0x03, 0xfe, 0x06, 0x01,
  0x05, 0x00, 0x01, 0x09, 0xfe, 0xfb, 0x09, 0x03, 0xfd, 0x02, 0x05, 0xfe,
  0x05, 0xfe, 0x0d, 0xee, 0xff, 0x02, 0x03, 0x04, 0xff, 0xff, 0xf2, 0xfa,
  0x02, 0x02, 0xe9, 0x04, 0xfa, 0x02, 0x05, 0xee, 0xff, 0x04, 0xfd, 0xed,
  0xe9, 0xf3, 0xf4, 0xd5, 0xff, 0xf6, 0x07, 0x0a, 0x13, 0x16, 0x01, 0xf2,
  0xfd, 0xfd, 0x01, 0x04, 0xe9, 0x12, 0xff, 0xfa, 0xfd, 0xff, 0xf2, 0xf5,
  0xff, 0xff, 0xfd, 0x03, 0x01, 0xf9, 0xf7, 0x06, 0xfc, 0xe9, 0x04, 0x01,
  0x00, 0x0d, 0x02, 0x03, 0x09, 0x01, 0x0f, 0x00, 0x09, 0x08, 0xfd, 0x05,
  0x01, 0x01, 0x07, 0x02, 0x00, 0x08, 0xfe, 0x01, 0x01, 0x04, 0x04, 0xfb,
  0x01, 0x05, 0x0a, 0x03, 0x06, 0xf8, 0x02, 0xfe, 0x12, 0xff, 0x06, 0x00,
  0x19, 0x0c, 0x00, 0xfc, 0x0a, 0x05, 0x05, 0x01, 0x00, 0x0b, 0xfe, 0xfc,
  0x03, 0x03, 0xff, 0x02, 0x01, 0x00, 0x07, 0x00, 0x06, 0xfa, 0x01, 0x07,
  0x03, 0xf9, 0x06, 0x04, 0xff, 0xfe, 0xfe, 0xff, 0xfc, 0xfc, 0x02, 0x01,
  0xfe, 0x02, 0x02, 0x03, 0xfe, 0x01, 0x01, 0xfd, 0xfe, 0xfd, 0xfd, 0x03,
  0x01, 0x01, 0x00, 0x02, 0xfd, 0xfe, 0xfd, 0x02, 0xfe, 0x02, 0x00, 0x03,
  0xfd, 0x00, 0xfd, 0x02, 0xfd, 0xfe, 0xfc, 0x00, 0x01, 0x01, 0xfe, 0x00,
  0x03, 0x00, 0x00, 0x00, 0x01, 0x00, 0x00, 0xfc, 0xfd, 0x02, 0xfe, 0x00,
  0x02, 0x03, 0xff, 0xfc, 0xff, 0x00, 0xff, 0x03, 0xfe, 0x05, 0x08, 0xfd,
  0x0e, 0x04, 0x13, 0xd0, 0xfe, 0x05, 0x00, 0x02, 0x01, 0xf2, 0x06, 0x01,
  0x02, 0x01, 0xf6, 0x09, 0xfa, 0x00, 0xff, 0xf1, 0x02, 0xfa, 0x06, 0xf1,
  0x04, 0xf3, 0xfa, 0xf7, 0x0d, 0xfe, 0x06, 0xf1, 0x12, 0x16, 0xfb, 0xfa,
  0x04, 0xfd, 0x04, 0xfe, 0xe0, 0x1f, 0xfd, 0xe5, 0xff, 0xfc, 0xeb, 0xf7,
  0x01, 0x02, 0xfe, 0xff, 0xff, 0xf7, 0x00, 0x06, 0xf9, 0xe5, 0x00, 0x0a,
  0xfe, 0xff, 0x04, 0xfd, 0xfd, 0xfe, 0xfc, 0x03, 0xfb, 0x00, 0x02, 0xfe,
  0xff, 0xff, 0xfc, 0xff, 0xfc, 0xff, 0x01, 0xfe, 0xfd, 0x00, 0xff, 0xff,
  0xfe, 0x01, 0xfd, 0xfb, 0x00, 0xff, 0xfb, 0xfd, 0x00, 0xff, 0xff, 0x00,
  0xfd, 0xfe, 0x01, 0x02, 0xfe, 0x00, 0x00, 0x00, 0x01, 0xfe, 0x03, 0x01,
  0x01, 0xfd, 0x00, 0xfc, 0xfe, 0x00, 0xfb, 0xfd, 0xfe, 0x01, 0x00, 0x01,
  0x01, 0xfd, 0x00, 0xfc, 0x01, 0x0b, 0x03, 0xfe, 0x0b, 0xfe, 0x0d, 0xfe,
  0x0d, 0x09, 0x04, 0x03, 0x07, 0x02, 0x07, 0x01, 0x03, 0x08, 0x01, 0x07,
  0x00, 0x05, 0x01, 0xf7, 0x03, 0x02, 0x06, 0x01, 0x0b, 0xf7, 0xfc, 0xfd,
  0x12, 0x00, 0x09, 0xfe, 0x1a, 0x0a, 0x05, 0xf9, 0x0c, 0x00, 0x07, 0x02,
  0x03, 0x0a, 0xff, 0xfe, 0x00, 0x04, 0xfe, 0xfe, 0x05, 0xfd, 0x01, 0x01,
  0x03, 0xfd, 0xfd, 0x08, 0x03, 0xf6, 0x07, 0x00, 0xff, 0xfd, 0x00, 0x02,
  0xfe, 0xfe, 0xfd, 0xfe, 0x01, 0xfc, 0xfc, 0xfe, 0xfe, 0x01, 0xfe, 0xfe,
  0x00, 0x01, 0x02, 0x02, 0xfe, 0xff, 0xfc, 0x00, 0x03, 0x00, 0xfb, 0x00,
  0x02, 0xfc, 0xfe, 0xff, 0xfc, 0xfc, 0x00, 0xfe, 0x03, 0xfe, 0x02, 0x00,
  0xff, 0xff, 0x00, 0x01, 0xfd, 0x04, 0x02, 0x03, 0xfb, 0xfd, 0xff, 0xfd,
  0xfd, 0x01, 0x00, 0xff, 0x01, 0xff, 0xfb, 0x01, 0x01, 0xfc, 0xfd, 0xfd,
  0x00, 0x0e, 0x00, 0x03, 0x09, 0x01, 0x0f, 0xfc, 0x0b, 0x0b, 0xfd, 0x03,
  0x04, 0x02, 0x07, 0xff, 0x04, 0x05, 0xfe, 0x04, 0x01, 0x06, 0x04, 0xf6,
  0xff, 0x08, 0x0d, 0x00, 0x0b, 0xff, 0x01, 0x02, 0x0d, 0x01, 0x04, 0xfd,
  0x19, 0x0e, 0x06, 0xfc, 0x0f, 0x05, 0x05, 0x00, 0x05, 0x0e, 0x03, 0x01,
  0x07, 0x07, 0xfc, 0xfc, 0x05, 0x01, 0x06, 0x02, 0x08, 0xfe, 0xfe, 0x06,
  0x01, 0xfa, 0x08, 0x07, 0x05, 0x06, 0xff, 0x00, 0x13, 0x00, 0x0c, 0x05,
  0x0b, 0x07, 0xfe, 0xfb, 0x04, 0xf1, 0xff, 0xfb, 0x03, 0x05, 0xfd, 0x06,
  0xfc, 0x03, 0x00, 0xf5, 0xfe, 0x07, 0x02, 0x01, 0x02, 0xf6, 0xfa, 0xd3,
  0x02, 0x04, 0x06, 0xfb, 0x1b, 0x00, 0x06, 0xfc, 0x0d, 0xff, 0x03, 0xff,
  0xfc, 0x0f, 0xfd, 0x02, 0x02, 0x01, 0xf3, 0xfc, 0x00, 0x00, 0xfd, 0x01,
  0xee, 0xf8, 0xfe, 0x07, 0xff, 0xe9, 0x06, 0xfb, 0xf8, 0x07, 0xcc, 0xe0,
  0x05, 0x07, 0xe4, 0xff, 0xd3, 0x04, 0x03, 0xea, 0x00, 0x0c, 0xf2, 0xf7,
  0xeb, 0x03, 0xfb, 0x08, 0xf6, 0x06, 0x03, 0xfc, 0x02, 0x04, 0x08, 0x06,
  0x00, 0x01, 0x11, 0x00, 0x0d, 0x00, 0x07, 0xf1, 0x00, 0x20, 0x01, 0xca,
  0xf4, 0xc5, 0x0a, 0xf2, 0xf3, 0xfd, 0xd3, 0x02, 0x02, 0xfa, 0xfb, 0xff,
  0xdc, 0xff, 0xdd, 0xff, 0xfc, 0x10, 0xfd, 0x0f, 0x05, 0x81, 0x04, 0x06,
  0xfd, 0x00, 0xca, 0xff, 0x1b, 0x01, 0x22, 0x0b, 0x03, 0x00, 0x02, 0xfb,
  0xfe, 0xf8, 0x05, 0xf8, 0xfd, 0xfd, 0x07, 0x0d, 0xf7, 0x00, 0xfb, 0xf3,
  0xfd, 0xf8, 0x0a, 0xf1, 0x09, 0xf8, 0xfa, 0xca, 0x09, 0x04, 0xff, 0xee,
  0x0f, 0xff, 0xfe, 0xfb, 0x06, 0x00, 0x02, 0x06, 0x15, 0x0c, 0xfd, 0x01,
  0x02, 0xf6, 0xe2, 0xf9, 0x03, 0x0d, 0x06, 0x01, 0xd2, 0x08, 0x0b, 0x0d,
  0x07, 0xd8, 0x03, 0x06, 0xf9, 0x11, 0x06, 0x03, 0x11, 0xff, 0x1c, 0x22,
  0x06, 0xfd, 0xfe, 0x07, 0xf8, 0xe7, 0x0b, 0x12, 0x07, 0xfa, 0xf2, 0x0c,
  0x02, 0xf9, 0xfb, 0x08, 0x00, 0x08, 0xe5, 0xf6, 0xdc, 0xfd, 0xe5, 0xf7,
  0x11, 0x07, 0xfc, 0xfe, 0x1d, 0x18, 0xf4, 0x08, 0x05, 0x07, 0x18, 0x11,
  0xd5, 0x28, 0x05, 0xe6, 0xff, 0xf6, 0xf0, 0x0c, 0x0a, 0xf6, 0x08, 0xfa,
  0x0c, 0xf5, 0x01, 0x09, 0x06, 0x01, 0xfc, 0xf7, 0x11, 0xfe, 0xec, 0x0b,
  0x0b, 0xf9, 0x0f, 0xf3, 0x04, 0x08, 0xff, 0x06, 0xc8, 0xf6, 0xfd, 0x05,
  0xd5, 0x0d, 0xf8, 0xff, 0x01, 0x02, 0xd9, 0xfb, 0xff, 0xf5, 0xc3, 0xfb,
  0x03, 0xf6, 0xfd, 0xfe, 0x0a, 0xf5, 0xf5, 0xf1, 0xf6, 0xfa, 0xbf, 0xf0,
  0x08, 0x0e, 0x03, 0x06, 0xe3, 0xe4, 0x1c, 0xec, 0xff, 0x09, 0xf6, 0xef,
  0x03, 0xf4, 0xfb, 0xfe, 0xf1, 0xfe, 0xe5, 0xdc, 0x06, 0xf7, 0xc2, 0x0b,
  0xfd, 0x00, 0xfc, 0x01, 0x00, 0x03, 0x00, 0xfe, 0xfd, 0xfb, 0x00, 0x01,
  0xfe, 0xff, 0x00, 0xfd, 0x02, 0x01, 0xff, 0x01, 0xfc, 0xfe, 0xfc, 0x01,
  0x03, 0x02, 0x01, 0x00, 0x00, 0xfe, 0xfe, 0x01, 0x02, 0x02, 0x01, 0x00,
  0x01, 0x00, 0xfb, 0x01, 0xfd, 0xff, 0xfd, 0xfd, 0xff, 0x03, 0xfc, 0x02,
  0x00, 0xfe, 0xff, 0xfd, 0x02, 0x01, 0x02, 0xfe, 0xfb, 0xff, 0xfe, 0xfd,
  0x01, 0x01, 0xfd, 0x01, 0x5a, 0xf8, 0xff, 0xff, 0x04, 0x00, 0x00, 0x00,
  0x00, 0x05, 0x00, 0x00, 0x9c, 0xd8, 0xb9, 0x3e, 0x93, 0x64, 0x20, 0x3f,
  0x00, 0x52, 0x8e, 0xbd, 0x44, 0xc8, 0x88, 0x3d, 0x67, 0xd8, 0x36, 0x3e,
  0x43, 0xff, 0x93, 0x3f, 0x95, 0x24, 0x52, 0x3e, 0x61, 0x8e, 0x40, 0xbf,
  0x09, 0x4a, 0x9e, 0x3e, 0xf8, 0x30, 0x0e, 0xbf, 0xf0, 0xa7, 0x18, 0x3f,
  0xf9, 0xd5, 0x2b, 0x3f, 0x74, 0xf2, 0xe5, 0x3e, 0xca, 0x8c, 0x70, 0x3c,
  0x73, 0x73, 0xa5, 0xbe, 0x73, 0xc1, 0xdf, 0xbd, 0x26, 0x87, 0xe3, 0xbd,
  0xb8, 0xc9, 0x35, 0xbc, 0xff, 0x62, 0x6c, 0x3d, 0x2a, 0x00, 0xa0, 0x3b,
  0x01, 0x3a, 0x58, 0x3f, 0x7a, 0xc1, 0xbc, 0xbb, 0xbc, 0x74, 0xb2, 0x3f,
  0xf3, 0xa6, 0x4f, 0x3d, 0x79, 0xf8, 0x37, 0xbf, 0x39, 0xa3, 0x6c, 0xbd,
  0x91, 0xe5, 0x08, 0xbc, 0x05, 0x41, 0x32, 0xbd, 0xdf, 0xde, 0x15, 0x3e,
  0x28, 0x77, 0x00, 0x3e, 0xe0, 0xfb, 0xbc, 0x3e, 0x89, 0x61, 0x8a, 0xbf,
  0x80, 0x47, 0x7c, 0xbd, 0x34, 0x5a, 0x65, 0x3e, 0x52, 0x13, 0xcd, 0x3f,
  0x53, 0xda, 0xb7, 0xbf, 0x01, 0x25, 0xdb, 0x3d, 0x49, 0x6a, 0x60, 0x3e,
  0xcf, 0x23, 0x62, 0xbf, 0xaa, 0xf0, 0x18, 0x3f, 0xb0, 0x10, 0x96, 0xbe,
  0x28, 0x21, 0x1a, 0xbf, 0xfb, 0x1d, 0x2f, 0xbe, 0x20, 0xb2, 0xe6, 0x3f,
  0x68, 0x29, 0x86, 0x3e, 0x33, 0xcf, 0x29, 0xbe, 0x46, 0x9b, 0xd2, 0x3e,
  0x16, 0xdb, 0xda, 0x3e, 0x52, 0x54, 0x8f, 0x3e, 0xf5, 0x46, 0x7d, 0x3d,
  0x35, 0x57, 0x1b, 0x3e, 0x51, 0xef, 0xa6, 0x3e, 0xbf, 0x15, 0xc3, 0x3d,
  0xca, 0x32, 0x99, 0x3e, 0x84, 0xa5, 0x6a, 0x3e, 0x5d, 0x20, 0x95, 0xbd,
  0xc7, 0xeb, 0x17, 0xbe, 0x3c, 0x64, 0x94, 0xbc, 0xcf, 0xfa, 0x8b, 0xbc,
  0x59, 0xda, 0xa2, 0xbd, 0x17, 0x96, 0x88, 0xbe, 0x18, 0xf9, 0xcc, 0x3e,
  0xf3, 0xe3, 0xb0, 0xbe, 0x9f, 0x64, 0x61, 0x3e, 0x98, 0xb1, 0x9d, 0x3e,
  0x25, 0x5e, 0x0b, 0xbf, 0xc7, 0x1f, 0xbe, 0x3d, 0x0d, 0x3c, 0xad, 0x3c,
  0x37, 0xd2, 0xfe, 0x3d, 0x4b, 0x79, 0xae, 0xbf, 0x92, 0x49, 0xd6, 0xbb,
  0x35, 0x33, 0x37, 0xbf, 0xde, 0x41, 0x91, 0xbe, 0x48, 0xd8, 0x40, 0x3e,
  0x70, 0xa4, 0x23, 0xbf, 0x51, 0xdd, 0xc2, 0x3e, 0x0c, 0xce, 0x79, 0xbf,
  0xde, 0xee, 0xf9, 0x3e, 0x08, 0xaf, 0x4a, 0x3d, 0xeb, 0xdc, 0x42, 0xbe,
  0x11, 0xd2, 0x0c, 0xbf, 0x78, 0x60, 0xe3, 0x3e, 0xb5, 0x21, 0x28, 0xbf,
  0x55, 0x40, 0xae, 0xbe, 0x6b, 0x26, 0x0e, 0x3f, 0xf6, 0xb4, 0x95, 0xbe,
  0xdd, 0xfd, 0xc3, 0x3e, 0x32, 0xed, 0xad, 0x3e, 0xee, 0xec, 0xbf, 0x3e,
  0x75, 0x89, 0x4f, 0x3c, 0xee, 0x0d, 0x1c, 0xbf, 0xba, 0x2e, 0xb7, 0x3e,
  0x7f, 0xc4, 0xff, 0x3e, 0xae, 0x9d, 0x43, 0xbe, 0xf0, 0x8b, 0x05, 0x3e,
  0x97, 0x0f, 0xc3, 0xbf, 0x71, 0x08, 0xe3, 0xbe, 0x0d, 0xe0, 0x55, 0xbe,
  0xf5, 0x90, 0x48, 0xbf, 0xce, 0x99, 0xa5, 0x3d, 0x47, 0xa6, 0xe8, 0x3e,
  0x3d, 0xed, 0xcb, 0xbd, 0x85, 0x02, 0x9a, 0x3e, 0x2c, 0x82, 0x30, 0xbd,
  0x73, 0x2d, 0xab, 0x3f, 0xde, 0xe0, 0x9b, 0xbe, 0x20, 0xae, 0x38, 0x3d,
  0xa3, 0x78, 0x50, 0x3d, 0x16, 0x4a, 0x18, 0x3e, 0xe3, 0x7e, 0xc2, 0xbd,
  0xae, 0xeb, 0x04, 0xbf, 0xcb, 0x41, 0xd6, 0xbc, 0xa2, 0x3d, 0x30, 0xbe,
  0xd5, 0x48, 0x10, 0xbe, 0xc9, 0xde, 0x3b, 0x3e, 0xe5, 0x4e, 0x7e, 0xbf,
  0x5e, 0xe8, 0xa9, 0xbc, 0x2d, 0x72, 0x96, 0xbe, 0xb5, 0xc2, 0xef, 0x3d,
  0x2c, 0x68, 0x8b, 0x3f, 0x5d, 0x6c, 0x69, 0x3d, 0x7d, 0xdd, 0x3e, 0x3e,
  0xea, 0x3b, 0x04, 0x3d, 0x98, 0xe6, 0x1c, 0x3e, 0x2a, 0x00, 0xd9, 0x3d,
  0x94, 0x8e, 0x15, 0xbf, 0x5e, 0x49, 0x72, 0xbc, 0x6e, 0x7d, 0x51, 0x3e,
  0xa1, 0x7e, 0x98, 0xbf, 0x6e, 0x22, 0xae, 0x3f, 0xc4, 0xc1, 0xe6, 0xbf,
  0xa9, 0x93, 0x9d, 0xbe, 0x7a, 0x04, 0x82, 0x3e, 0x64, 0x39, 0x33, 0x3f,
  0x60, 0x6b, 0xc8, 0xbe, 0x2f, 0x87, 0x82, 0xbf, 0xf2, 0x20, 0x13, 0xbe,
  0x92, 0x40, 0x2c, 0x3f, 0x1d, 0x2a, 0x82, 0xbf, 0x4a, 0xa1, 0x12, 0xbe,
  0xd2, 0x74, 0xdd, 0xbf, 0x2d, 0xe4, 0x9d, 0xbd, 0x56, 0x54, 0xdb, 0x3e,
  0x8d, 0xc9, 0x03, 0x3f, 0xae, 0x24, 0xb0, 0x3e, 0x42, 0x3e, 0xe8, 0x3c,
  0xa6, 0xda, 0x6c, 0xbe, 0x17, 0x46, 0x5e, 0x3f, 0xd3, 0x07, 0xe8, 0xbe,
  0x29, 0xdd, 0xc9, 0xbd, 0x1e, 0xb9, 0xa3, 0xbf, 0x8c, 0xb3, 0x2e, 0xbf,
  0x9b, 0x28, 0xa7, 0x3e, 0x97, 0xbd, 0xde, 0x3e, 0x76, 0x2f, 0xa6, 0x3e,
  0x50, 0x2c, 0x03, 0x3f, 0x0b, 0x93, 0x60, 0xbf, 0xb7, 0x73, 0x8d, 0xbe,
  0x51, 0x6e, 0x03, 0x3f, 0x51, 0x77, 0x42, 0x3f, 0x07, 0x33, 0x0c, 0x3e,
  0x7b, 0xd4, 0x62, 0xbf, 0xa6, 0xcd, 0xa4, 0xbe, 0x10, 0x6f, 0x69, 0xbd,
  0x3f, 0xca, 0x56, 0xbf, 0xb8, 0x85, 0x12, 0xbe, 0x03, 0xbf, 0xcb, 0xbd,
  0xa1, 0x57, 0x87, 0x3e, 0x62, 0x8c, 0x78, 0xbc, 0x1c, 0x57, 0x08, 0x3f,
  0x44, 0xca, 0x2a, 0xbf, 0x24, 0x95, 0xdb, 0xbd, 0xe1, 0x8d, 0xbb, 0x3e,
  0xa0, 0x1b, 0xdb, 0xbd, 0xe2, 0x21, 0x3b, 0x3e, 0x38, 0x4c, 0x1f, 0x3e,
  0xbd, 0x3b, 0x2a, 0x3f, 0xf7, 0x28, 0x5b, 0x3f, 0x93, 0xca, 0xd5, 0x3e,
  0xa0, 0x99, 0xa1, 0x3b, 0xae, 0xf1, 0x30, 0x3e, 0x6d, 0xa5, 0x0e, 0xbf,
  0x42, 0x6a, 0x3a, 0xbf, 0x47, 0x39, 0x36, 0xbf, 0xa9, 0x25, 0xec, 0x3e,
  0x82, 0xc8, 0xa5, 0xbd, 0x99, 0x9c, 0x8b, 0xbe, 0xaf, 0x15, 0xcd, 0xbe,
  0x0c, 0x0a, 0x03, 0xbf, 0x70, 0x7d, 0xd0, 0xbf, 0x84, 0x68, 0xd8, 0xbe,
  0x91, 0xef, 0xfb, 0x3e, 0x2b, 0x34, 0x89, 0xbd, 0x83, 0x1e, 0x87, 0x3e,
  0x20, 0x05, 0xa6, 0x3e, 0x26, 0x70, 0xf6, 0x3d, 0xea, 0x79, 0x4e, 0xbf,
  0x2c, 0xf9, 0xb0, 0xbe, 0x78, 0x5d, 0xd4, 0x3f, 0x8e, 0x8a, 0x7e, 0x3e,
  0xcd, 0x8f, 0xf3, 0x3d, 0x97, 0x6e, 0x9d, 0xbf, 0x67, 0x8f, 0x16, 0x3f,
  0x8d, 0x9a, 0xae, 0x3f, 0xbb, 0xa0, 0x80, 0x3f, 0x8e, 0x6c, 0x04, 0x3e,
  0x6e, 0x1e, 0x80, 0x3d, 0x2c, 0x78, 0x60, 0xbe, 0xd0, 0xcd, 0x76, 0xbd,
  0xd8, 0xbc, 0x2a, 0x3e, 0x2f, 0xba, 0xdc, 0xbd, 0x8e, 0x76, 0x02, 0xbf,
  0xb7, 0x07, 0x94, 0x3f, 0x6d, 0xc0, 0x4c, 0x3f, 0xaf, 0x2d, 0xff, 0x3d,
  0x3a, 0xdc, 0x01, 0x3e, 0x72, 0x3f, 0x53, 0xbf, 0x54, 0xec, 0x45, 0x3d,
  0x3a, 0x03, 0xf6, 0x3e, 0x73, 0xd3, 0xa6, 0x3e, 0x62, 0xe6, 0x8b, 0xbf,
  0xf0, 0x5f, 0xb5, 0x3f, 0x1e, 0x6d, 0x12, 0x3f, 0xa9, 0xad, 0x0e, 0x3f,
  0xc2, 0x42, 0x13, 0xbf, 0x02, 0xe3, 0xca, 0x3e, 0xd6, 0x20, 0x5c, 0x3e,
  0x42, 0x21, 0x4b, 0xbf, 0x84, 0x9e, 0x09, 0x3e, 0x53, 0x16, 0xbe, 0x3e,
  0x75, 0x1a, 0x8d, 0xbe, 0x30, 0x6a, 0x99, 0x3e, 0xb9, 0xf4, 0x4f, 0xbf,
  0x3a, 0xcb, 0xd5, 0xbc, 0x52, 0x94, 0x80, 0x3e, 0x21, 0x53, 0x3b, 0xbf,
  0x14, 0xcd, 0xd5, 0x3e, 0xa2, 0x1b, 0x5d, 0x3e, 0x18, 0xb0, 0x77, 0xbf,
  0x3e, 0x75, 0xbc, 0xbe, 0x75, 0xf5, 0xa0, 0x3e, 0xfe, 0x1c, 0x05, 0xbe,
  0xb8, 0x3a, 0x91, 0x3e, 0x34, 0xb6, 0xd2, 0xbe, 0x42, 0xa1, 0x1f, 0x3f,
  0x8e, 0x8d, 0x91, 0x3e, 0xf7, 0x1b, 0xa3, 0x3e, 0xf7, 0x05, 0x11, 0x3e,
  0x41, 0x7a, 0xaf, 0xbd, 0xda, 0xfc, 0x84, 0x3f, 0x2d, 0x64, 0x99, 0xbf,
  0xcb, 0xea, 0x9d, 0x3f, 0x51, 0xb9, 0xad, 0xbd, 0x8e, 0x27, 0xce, 0x3e,
  0xae, 0xdb, 0x87, 0x3e, 0xf4, 0xef, 0x7b, 0xbf, 0x8d, 0xcb, 0x0a, 0x3d,
  0x11, 0x36, 0x1b, 0xbe, 0x0c, 0xe3, 0x01, 0xbe, 0x66, 0x15, 0xf9, 0xbe,
  0xee, 0x6f, 0x2c, 0x3f, 0x58, 0x4d, 0x8e, 0xbe, 0xe4, 0x23, 0x75, 0x3e,
  0xdd, 0x62, 0x10, 0x3f, 0x5a, 0xc1, 0xef, 0xbe, 0x88, 0x11, 0x1e, 0xbf,
  0x8b, 0x3f, 0x7e, 0x3f, 0x4e, 0x34, 0x71, 0x3e, 0x07, 0xd8, 0x05, 0x3e,
  0x41, 0x10, 0x86, 0x3f, 0xb9, 0x20, 0xe7, 0x3b, 0x04, 0x53, 0x8a, 0x3e,
  0xb3, 0x4f, 0xb9, 0xbe, 0x3c, 0x56, 0x45, 0x3f, 0x84, 0x74, 0x88, 0xbf,
  0xe8, 0x04, 0xf0, 0xbc, 0x28, 0xb2, 0x9f, 0x3d, 0xe9, 0xce, 0x3c, 0x3c,
  0x22, 0x57, 0xa8, 0x3d, 0x46, 0xbd, 0x21, 0x3d, 0xa1, 0x29, 0x4d, 0xbe,
  0x69, 0x57, 0x45, 0xbf, 0x99, 0x9b, 0xe7, 0xbe, 0xae, 0x38, 0x11, 0xbf,
  0x39, 0x53, 0x1c, 0xbf, 0x20, 0xb9, 0x0f, 0xbf, 0x65, 0x1f, 0x63, 0x3f,
  0x28, 0x50, 0xa2, 0x3e, 0x2c, 0x69, 0xc2, 0x3d, 0x98, 0x4d, 0x20, 0x3e,
  0x65, 0x0d, 0xda, 0xbe, 0xb2, 0x0b, 0x54, 0xbe, 0xa1, 0x0c, 0x58, 0x3f,
  0x0c, 0x17, 0x8b, 0xbe, 0x05, 0xe7, 0xac, 0x3f, 0xdc, 0xc3, 0x57, 0xbf,
  0x11, 0x51, 0x4c, 0xbf, 0x68, 0x75, 0x18, 0x3f, 0xa4, 0x42, 0x44, 0xbd,
  0x8a, 0x6d, 0xab, 0x3f, 0xdf, 0xf7, 0x0b, 0xbd, 0xd2, 0xb8, 0x13, 0x3f,
  0xed, 0xfd, 0xf2, 0x3e, 0x8d, 0xbd, 0x50, 0xbd, 0x01, 0x01, 0x17, 0xbe,
  0x44, 0xb6, 0xad, 0x3e, 0x41, 0xf4, 0x7b, 0x3e, 0xa1, 0x11, 0x56, 0x3f,
  0xd5, 0xd3, 0x72, 0x3f, 0x52, 0xe8, 0x93, 0xbf, 0xb4, 0x58, 0xa8, 0xbe,
  0xfc, 0x83, 0xb4, 0xbd, 0xf0, 0x8d, 0x8e, 0xbc, 0xbb, 0x2f, 0x20, 0x3e,
  0x27, 0xd2, 0xae, 0x3e, 0xe6, 0x23, 0x65, 0xbf, 0x86, 0x14, 0xd4, 0x3c,
  0x45, 0x94, 0x4f, 0x3e, 0xae, 0xf1, 0x55, 0xbe, 0x31, 0x41, 0x4b, 0xbf,
  0x66, 0xfd, 0xff, 0xff, 0x04, 0x00, 0x00, 0x00, 0x64, 0x00, 0x00, 0x00,
  0xa4, 0x3c, 0xf2, 0x3e, 0x86, 0xd0, 0x53, 0x3e, 0x0d, 0x2e, 0x75, 0x3f,
  0xa7, 0x29, 0x8b, 0x3e, 0xba, 0x98, 0xda, 0x3e, 0x98, 0x83, 0x13, 0x3f,
  0xe8, 0x3a, 0x87, 0xbf, 0x75, 0xf5, 0xd2, 0xbd, 0x15, 0xf4, 0x71, 0xbf,
  0xf9, 0xaf, 0x34, 0x3f, 0x4c, 0x88, 0xb3, 0xbf, 0x5a, 0x3f, 0x61, 0xbf,
  0x8b, 0x40, 0x52, 0x3e, 0xff, 0x2a, 0x82, 0x3f, 0x82, 0xd9, 0x28, 0x3d,
  0xf3, 0x0c, 0x17, 0xbe, 0x43, 0x02, 0x8b, 0xbe, 0x6f, 0xf8, 0x87, 0x3f,
  0x0d, 0x08, 0x2d, 0x3e, 0x59, 0x6d, 0xbe, 0xbf, 0x2b, 0xa4, 0x4f, 0xbf,
  0xa3, 0x21, 0xbb, 0x3f, 0x9b, 0x60, 0xcd, 0xbe, 0x4f, 0x95, 0x2c, 0xbf,
  0x01, 0xae, 0x59, 0x3f, 0xd6, 0xfd, 0xff, 0xff, 0x04, 0x00, 0x00, 0x00,
  0x04, 0x00, 0x00, 0x00, 0x4a, 0x5f, 0xc2, 0x3e, 0xe6, 0xfd, 0xff, 0xff,
  0x04, 0x00, 0x00, 0x00, 0x00, 0x01, 0x00, 0x00, 0x0f, 0xee, 0x3c, 0x3e,
  0x0e, 0xda, 0x22, 0x3e, 0x9d, 0xff, 0x0e, 0x3e, 0xda, 0x26, 0x01, 0xbd,
  0xd0, 0x8f, 0x8b, 0x3e, 0x1e, 0xe4, 0x6b, 0x3e, 0x90, 0x23, 0xd2, 0xbd,
  0x0a, 0x0d, 0x41, 0xbd, 0xd6, 0x61, 0x7a, 0x3e, 0xcf, 0x86, 0xfa, 0xbd,
  0x5b, 0x1e, 0x93, 0xbd, 0x67, 0xb8, 0x8b, 0x3e, 0x13, 0x7f, 0x2b, 0xbf,
  0x17, 0x0e, 0xa9, 0x3e, 0x47, 0x1f, 0xa6, 0xbe, 0x81, 0x21, 0xe7, 0xbd,
  0xc4, 0xfc, 0x65, 0xbd, 0x97, 0x75, 0xb4, 0xbc, 0xe3, 0xaa, 0x6c, 0x3e,
  0x9b, 0x90, 0xd9, 0xbd, 0x66, 0xb8, 0x27, 0x3e, 0x31, 0xdd, 0x63, 0x3e,
  0xe5, 0x9e, 0x10, 0x3f, 0x81, 0x2e, 0x73, 0xbf, 0xdd, 0x49, 0x57, 0xbd,
  0xe6, 0xa0, 0x36, 0x3e, 0xbf, 0x39, 0x01, 0xbd, 0x2f, 0xd3, 0x8d, 0xbe,
  0x59, 0x2b, 0x78, 0xbd, 0x48, 0xc8, 0x70, 0xbd, 0xcb, 0x2a, 0xf0, 0xbc,
  0x53, 0x89, 0x40, 0x3e, 0xc9, 0x50, 0x8d, 0x3e, 0x59, 0xa9, 0x72, 0x3e,
  0xa4, 0x63, 0x38, 0xbf, 0x30, 0xa7, 0x80, 0xbd, 0x9a, 0x79, 0xda, 0x3e,
  0xa2, 0xcb, 0x39, 0x3e, 0x21, 0xe4, 0x81, 0xbd, 0x5a, 0xcb, 0x00, 0xbc,
  0x5e, 0x16, 0x5e, 0xbd, 0x14, 0x0e, 0xb0, 0x3e, 0x22, 0xf9, 0x66, 0xbd,
  0xe9, 0xc3, 0xef, 0xbd, 0x37, 0x70, 0x7d, 0xbd, 0xbe, 0xd0, 0x94, 0x3d,
  0xb9, 0x22, 0xb6, 0x3d, 0xfc, 0xb8, 0x5f, 0x3e, 0xc3, 0xd8, 0x41, 0x3e,
  0x07, 0x58, 0x84, 0x3e, 0x42, 0x20, 0x0e, 0x3d, 0x72, 0xa2, 0x51, 0x3e,
  0x54, 0xff, 0xa4, 0xbc, 0xc1, 0x04, 0x88, 0xbc, 0x8e, 0xa5, 0xb2, 0xbd,
  0x9b, 0xd0, 0x3a, 0x3e, 0x1c, 0x87, 0xab, 0xbd, 0x30, 0xe5, 0x82, 0x3e,
  0x0d, 0x84, 0x90, 0x3e, 0x8d, 0xed, 0xb6, 0xbe, 0x87, 0x9c, 0xc1, 0x3d,
  0x29, 0x06, 0x00, 0xbe, 0x69, 0x23, 0x99, 0x3e, 0xa5, 0xad, 0xc8, 0xbd,
  0xf2, 0xfe, 0xff, 0xff, 0x04, 0x00, 0x00, 0x00, 0x00, 0x01, 0x00, 0x00,
  0x9a, 0x22, 0x9d, 0x3d, 0x63, 0x0c, 0xb6, 0xbf, 0x21, 0xcd, 0xfb, 0xbe,
  0x5f, 0xed, 0x1e, 0xbd, 0xb3, 0xda, 0xb6, 0x3d, 0x1b, 0xa3, 0xcc, 0xbd,
  0x8e, 0xcd, 0xad, 0xbf, 0x79, 0xce, 0x4c, 0x3f, 0xe9, 0x72, 0x70, 0xbe,
  0x82, 0x2d, 0x58, 0x3f, 0x56, 0x86, 0x06, 0xbe, 0x9d, 0x0e, 0xe6, 0xbd,
  0x5a, 0xd0, 0x0d, 0x3f, 0x77, 0xdd, 0x76, 0x3f, 0x9b, 0x8d, 0xf2, 0xbe,
  0xea, 0x2b, 0x0e, 0xbf, 0xc1, 0x7e, 0x9a, 0x3e, 0x4c, 0x09, 0x62, 0x3f,
  0xed, 0x94, 0xe3, 0x3e, 0x78, 0xba, 0x53, 0x3f, 0x83, 0xc7, 0xd7, 0xbe,
  0x23, 0xb3, 0xc1, 0x3e, 0x72, 0xcc, 0x37, 0x3f, 0x80, 0xee, 0xf5, 0xbc,
  0x6c, 0xb7, 0xf8, 0xbd, 0x72, 0x92, 0xe8, 0x3e, 0xa6, 0x7b, 0xf1, 0x3f,
  0x49, 0x1a, 0x9c, 0x3f, 0x7c, 0x22, 0xe1, 0x3f, 0x40, 0x4b, 0xa0, 0xbe,
  0x19, 0x55, 0x71, 0x3f, 0x49, 0x61, 0xcb, 0xbf, 0xb7, 0x42, 0x33, 0xbf,
  0xd0, 0xee, 0x75, 0xbe, 0x51, 0xb5, 0x92, 0x3f, 0x44, 0xa9, 0x25, 0x3d,
  0xff, 0xad, 0xd8, 0xbf, 0x16, 0x5c, 0x3b, 0x3c, 0x77, 0xb6, 0x56, 0x3f,
  0x16, 0x0c, 0x20, 0xbf, 0xad, 0x19, 0x4f, 0xbf, 0x01, 0xc1, 0xec, 0xbd,
  0x00, 0xac, 0x0c, 0x3f, 0x93, 0x55, 0xcb, 0xbe, 0x0b, 0x20, 0xac, 0x3f,
  0x69, 0xc5, 0xac, 0xbf, 0x4b, 0x98, 0x49, 0x3e, 0x48, 0xfc, 0xeb, 0x3e,
  0x98, 0x05, 0x1d, 0xbf, 0x5e, 0x96, 0xc1, 0xbd, 0xd0, 0x71, 0xb9, 0x3f,
  0x4d, 0x4c, 0x3e, 0x3f, 0xbf, 0x8d, 0xd6, 0xbe, 0x03, 0x8d, 0xd3, 0x3e,
  0xac, 0x02, 0x6b, 0x3e, 0x63, 0xb6, 0xa3, 0xbc, 0xdb, 0xf8, 0x0c, 0xbf,
  0xe3, 0xb2, 0xb6, 0x3e, 0xca, 0xce, 0x17, 0xbe, 0x5f, 0xd0, 0xe9, 0x3e,
  0x5c, 0x3d, 0xdc, 0x3c, 0x2e, 0xa3, 0xd2, 0x3d, 0x3a, 0xd7, 0xe8, 0x3e,
  0x89, 0x53, 0x98, 0x3f, 0x00, 0x00, 0x06, 0x00, 0x08, 0x00, 0x04, 0x00,
  0x06, 0x00, 0x00, 0x00, 0x04, 0x00, 0x00, 0x00, 0x00, 0x01, 0x00, 0x00,
  0xb1, 0x4c, 0x3a, 0x3e, 0x78, 0x44, 0xb7, 0x3d, 0x0c, 0x50, 0x27, 0xc0,
  0x5b, 0x79, 0x03, 0x3e, 0xe9, 0xc6, 0x9c, 0x3f, 0xe3, 0x29, 0x75, 0x3e,
  0x7c, 0x8a, 0xbf, 0xbc, 0x15, 0xa3, 0x4e, 0xbe, 0xc7, 0x3c, 0x8f, 0x3e,
  0x56, 0xff, 0x16, 0x3f, 0xf4, 0x4e, 0x9b, 0x3c, 0x37, 0xff, 0xc8, 0x3e,
  0x59, 0x9c, 0xdf, 0xbf, 0xd0, 0x99, 0x85, 0xbf, 0x5e, 0xed, 0xb2, 0xbf,
  0xc9, 0x31, 0x31, 0xbf, 0xbc, 0xbf, 0x77, 0xbc, 0x67, 0x1d, 0xd4, 0x3f,
  0xa0, 0x0d, 0x84, 0x3e, 0x33, 0xbc, 0x72, 0x3f, 0x06, 0x37, 0xb6, 0x3d,
  0x65, 0x7d, 0xf1, 0x3d, 0x6e, 0x25, 0x36, 0xc0, 0xc8, 0x84, 0x94, 0xbf,
  0xea, 0x01, 0x83, 0xbe, 0x36, 0xa1, 0xb8, 0x3f, 0x90, 0x51, 0xd1, 0xbd,
  0x0b, 0x33, 0xdb, 0xbf, 0x3f, 0xc6, 0x7d, 0x3d, 0xcd, 0x78, 0x48, 0xbd,
  0x78, 0x94, 0x1d, 0xbc, 0xc0, 0x59, 0x14, 0x3e, 0x70, 0x08, 0xe8, 0x3e,
  0x41, 0xa2, 0x84, 0x3e, 0x8c, 0x16, 0x4d, 0xc0, 0x01, 0x66, 0x67, 0xbb,
  0xa6, 0xed, 0x4c, 0xc0, 0xbf, 0x10, 0xf9, 0x3d, 0x2d, 0xa4, 0xad, 0xbc,
  0xb6, 0xd9, 0x03, 0x3f, 0xcb, 0xe8, 0xf1, 0xbb, 0x40, 0xf7, 0x1b, 0x3f,
  0xa5, 0x2d, 0xa2, 0x3c, 0x3e, 0xa3, 0x1c, 0xbf, 0x80, 0x5e, 0x0b, 0xbe,
  0x8d, 0xb5, 0x14, 0xc0, 0xed, 0x1f, 0x0f, 0x40, 0xe7, 0xd2, 0x5b, 0x3e,
  0x42, 0x26, 0x22, 0x3e, 0xae, 0x60, 0xae, 0x3e, 0xcd, 0xfa, 0xb7, 0x3f,
  0x1f, 0x14, 0x2c, 0x3e, 0xbc, 0xc0, 0x12, 0xbd, 0x24, 0x45, 0x59, 0x3f,
  0x56, 0x87, 0xe7, 0x3b, 0x88, 0x1d, 0x1f, 0x3e, 0x11, 0x87, 0xed, 0x3c,
  0xd2, 0x39, 0xb3, 0x3e, 0x50, 0x24, 0x55, 0x3e, 0x10, 0x55, 0xbb, 0xbf,
  0x8f, 0x04, 0xfd, 0x3f, 0x9e, 0xcc, 0xca, 0x3f, 0x94, 0xe9, 0xb8, 0xbf,
  0x0b, 0xba, 0x57, 0xbe, 0xa8, 0xf9, 0xff, 0xff, 0xac, 0xf9, 0xff, 0xff,
  0x0f, 0x00, 0x00, 0x00, 0x4d, 0x4c, 0x49, 0x52, 0x20, 0x43, 0x6f, 0x6e,
  0x76, 0x65, 0x72, 0x74, 0x65, 0x64, 0x2e, 0x00, 0x01, 0x00, 0x00, 0x00,
  0x14, 0x00, 0x00, 0x00, 0x00, 0x00, 0x0e, 0x00, 0x18, 0x00, 0x14, 0x00,
  0x10, 0x00, 0x0c, 0x00, 0x08, 0x00, 0x04, 0x00, 0x0e, 0x00, 0x00, 0x00,
  0x14, 0x00, 0x00, 0x00, 0x1c, 0x00, 0x00, 0x00, 0x18, 0x01, 0x00, 0x00,
  0x1c, 0x01, 0x00, 0x00, 0x20, 0x01, 0x00, 0x00, 0x04, 0x00, 0x00, 0x00,
  0x6d, 0x61, 0x69, 0x6e, 0x00, 0x00, 0x00, 0x00, 0x04, 0x00, 0x00, 0x00,
  0xcc, 0x00, 0x00, 0x00, 0x7c, 0x00, 0x00, 0x00, 0x38, 0x00, 0x00, 0x00,
  0x04, 0x00, 0x00, 0x00, 0x52, 0xff, 0xff, 0xff, 0x10, 0x00, 0x00, 0x00,
  0x00, 0x00, 0x00, 0x08, 0x0c, 0x00, 0x00, 0x00, 0x10, 0x00, 0x00, 0x00,
  0x28, 0xfa, 0xff, 0xff, 0x01, 0x00, 0x00, 0x00, 0x0b, 0x00, 0x00, 0x00,
  0x03, 0x00, 0x00, 0x00, 0x0a, 0x00, 0x00, 0x00, 0x01, 0x00, 0x00, 0x00,
  0x04, 0x00, 0x00, 0x00, 0x82, 0xff, 0xff, 0xff, 0x1c, 0x00, 0x00, 0x00,
  0x00, 0x00, 0x00, 0x08, 0x1c, 0x00, 0x00, 0x00, 0x20, 0x00, 0x00, 0x00,
  0x0c, 0x00, 0x08, 0x00, 0x07, 0x00, 0x00, 0x00, 0x00, 0x00, 0x06, 0x00,
  0x0c, 0x00, 0x00, 0x00, 0x00, 0x00, 0x01, 0x01, 0x01, 0x00, 0x00, 0x00,
  0x0a, 0x00, 0x00, 0x00, 0x03, 0x00, 0x00, 0x00, 0x09, 0x00, 0x00, 0x00,
  0x07, 0x00, 0x00, 0x00, 0x03, 0x00, 0x00, 0x00, 0xc2, 0xff, 0xff, 0xff,
  0x18, 0x00, 0x00, 0x00, 0x00, 0x00, 0x00, 0x08, 0x18, 0x00, 0x00, 0x00,
  0x1c, 0x00, 0x00, 0x00, 0x00, 0x00, 0x06, 0x00, 0x08, 0x00, 0x07, 0x00,
  0x06, 0x00, 0x00, 0x00, 0x00, 0x00, 0x00, 0x01, 0x01, 0x00, 0x00, 0x00,
  0x09, 0x00, 0x00, 0x00, 0x03, 0x00, 0x00, 0x00, 0x08, 0x00, 0x00, 0x00,
  0x06, 0x00, 0x00, 0x00, 0x02, 0x00, 0x00, 0x00, 0x00, 0x00, 0x0e, 0x00,
  0x14, 0x00, 0x00, 0x00, 0x10, 0x00, 0x0c, 0x00, 0x0b, 0x00, 0x04, 0x00,
  0x0e, 0x00, 0x00, 0x00, 0x10, 0x00, 0x00, 0x00, 0x00, 0x00, 0x00, 0x08,
  0x0c, 0x00, 0x00, 0x00, 0x10, 0x00, 0x00, 0x00, 0xe4, 0xfa, 0xff, 0xff,
  0x01, 0x00, 0x00, 0x00, 0x08, 0x00, 0x00, 0x00, 0x03, 0x00, 0x00, 0x00,
  0x00, 0x00, 0x00, 0x00, 0x05, 0x00, 0x00, 0x00, 0xff, 0xff, 0xff, 0xff,
  0x01, 0x00, 0x00, 0x00, 0x0b, 0x00, 0x00, 0x00, 0x01, 0x00, 0x00, 0x00,
  0x00, 0x00, 0x00, 0x00, 0x0c, 0x00, 0x00, 0x00, 0xc4, 0x04, 0x00, 0x00,
  0x60, 0x04, 0x00, 0x00, 0xcc, 0x03, 0x00, 0x00, 0x74, 0x03, 0x00, 0x00,
  0x1c, 0x03, 0x00, 0x00, 0xd0, 0x02, 0x00, 0x00, 0x84, 0x02, 0x00, 0x00,
  0x0c, 0x02, 0x00, 0x00, 0x98, 0x01, 0x00, 0x00, 0xf0, 0x00, 0x00, 0x00,
  0x60, 0x00, 0x00, 0x00, 0x04, 0x00, 0x00, 0x00, 0x82, 0xfb, 0xff, 0xff,
  0x00, 0x00, 0x00, 0x01, 0x14, 0x00, 0x00, 0x00, 0x1c, 0x00, 0x00, 0x00,
  0x1c, 0x00, 0x00, 0x00, 0x0c, 0x00, 0x00, 0x00, 0x34, 0x00, 0x00, 0x00,
  0x02, 0x00, 0x00, 0x00, 0xff, 0xff, 0xff, 0xff, 0x01, 0x00, 0x00, 0x00,
  0x6c, 0xfb, 0xff, 0xff, 0x19, 0x00, 0x00, 0x00, 0x53, 0x74, 0x61, 0x74,
  0x65, 0x66, 0x75, 0x6c, 0x50, 0x61, 0x72, 0x74, 0x69, 0x74, 0x69, 0x6f,
  0x6e, 0x65, 0x64, 0x43, 0x61, 0x6c, 0x6c, 0x3a, 0x30, 0x00, 0x00, 0x00,
  0x02, 0x00, 0x00, 0x00, 0x01, 0x00, 0x00, 0x00, 0x01, 0x00, 0x00, 0x00,
  0xda, 0xfb, 0xff, 0xff, 0x00, 0x00, 0x00, 0x01, 0x14, 0x00, 0x00, 0x00,
  0x1c, 0x00, 0x00, 0x00, 0x1c, 0x00, 0x00, 0x00, 0x0b, 0x00, 0x00, 0x00,
  0x68, 0x00, 0x00, 0x00, 0x02, 0x00, 0x00, 0x00, 0xff, 0xff, 0xff, 0xff,
  0x40, 0x00, 0x00, 0x00, 0xc4, 0xfb, 0xff, 0xff, 0x4c, 0x00, 0x00, 0x00,
  0x73, 0x65, 0x71, 0x75, 0x65, 0x6e, 0x74, 0x69, 0x61, 0x6c, 0x2f, 0x64,
  0x65, 0x6e, 0x73, 0x65, 0x5f, 0x32, 0x2f, 0x4d, 0x61, 0x74, 0x4d, 0x75,
  0x6c, 0x3b, 0x73, 0x65, 0x71, 0x75, 0x65, 0x6e, 0x74, 0x69, 0x61, 0x6c,
  0x2f, 0x64, 0x65, 0x6e, 0x73, 0x65, 0x5f, 0x32, 0x2f, 0x52, 0x65, 0x6c,
  0x75, 0x3b, 0x73, 0x65, 0x71, 0x75, 0x65, 0x6e, 0x74, 0x69, 0x61, 0x6c,
  0x2f, 0x64, 0x65, 0x6e, 0x73, 0x65, 0x5f, 0x32, 0x2f, 0x42, 0x69, 0x61,
  0x73, 0x41, 0x64, 0x64, 0x00, 0x00, 0x00, 0x00, 0x02, 0x00, 0x00, 0x00,
  0x01, 0x00, 0x00, 0x00, 0x40, 0x00, 0x00, 0x00, 0x66, 0xfc, 0xff, 0xff,
  0x00, 0x00, 0x00, 0x01, 0x14, 0x00, 0x00, 0x00, 0x1c, 0x00, 0x00, 0x00,
  0x1c, 0x00, 0x00, 0x00, 0x0a, 0x00, 0x00, 0x00, 0x80, 0x00, 0x00, 0x00,
  0x02, 0x00, 0x00, 0x00, 0xff, 0xff, 0xff, 0xff, 0x40, 0x00, 0x00, 0x00,
  0x50, 0xfc, 0xff, 0xff, 0x65, 0x00, 0x00, 0x00, 0x73, 0x65, 0x71, 0x75,
  0x65, 0x6e, 0x74, 0x69, 0x61, 0x6c, 0x2f, 0x64, 0x65, 0x6e, 0x73, 0x65,
  0x2f, 0x42, 0x69, 0x61, 0x73, 0x41, 0x64, 0x64, 0x3b, 0x73, 0x65, 0x71,
  0x75, 0x65, 0x6e, 0x74, 0x69, 0x61, 0x6c, 0x2f, 0x64, 0x65, 0x6e, 0x73,
  0x65, 0x5f, 0x31, 0x2f, 0x4d, 0x61, 0x74, 0x4d, 0x75, 0x6c, 0x3b, 0x73,
  0x65, 0x71, 0x75, 0x65, 0x6e, 0x74, 0x69, 0x61, 0x6c, 0x2f, 0x64, 0x65,
  0x6e, 0x73, 0x65, 0x5f, 0x31, 0x2f, 0x52, 0x65, 0x6c, 0x75, 0x3b, 0x73,
  0x65, 0x71, 0x75, 0x65, 0x6e, 0x74, 0x69, 0x61, 0x6c, 0x2f, 0x64, 0x65,
  0x6e, 0x73, 0x65, 0x5f, 0x31, 0x2f, 0x42, 0x69, 0x61, 0x73, 0x41, 0x64,
  0x64, 0x00, 0x00, 0x00, 0x02, 0x00, 0x00, 0x00, 0x01, 0x00, 0x00, 0x00,
  0x40, 0x00, 0x00, 0x00, 0x0a, 0xfd, 0xff, 0xff, 0x00, 0x00, 0x00, 0x01,
  0x14, 0x00, 0x00, 0x00, 0x1c, 0x00, 0x00, 0x00, 0x1c, 0x00, 0x00, 0x00,
  0x09, 0x00, 0x00, 0x00, 0x34, 0x00, 0x00, 0x00, 0x02, 0x00, 0x00, 0x00,
  0xff, 0xff, 0xff, 0xff, 0x05, 0x00, 0x00, 0x00, 0xf4, 0xfc, 0xff, 0xff,
  0x18, 0x00, 0x00, 0x00, 0x73, 0x65, 0x71, 0x75, 0x65, 0x6e, 0x74, 0x69,
  0x61, 0x6c, 0x2f, 0x64, 0x65, 0x6e, 0x73, 0x65, 0x2f, 0x4d, 0x61, 0x74,
  0x4d, 0x75, 0x6c, 0x32, 0x00, 0x00, 0x00, 0x00, 0x02, 0x00, 0x00, 0x00,
  0x01, 0x00, 0x00, 0x00, 0x05, 0x00, 0x00, 0x00, 0x00, 0x00, 0x16, 0x00,
  0x1c, 0x00, 0x18, 0x00, 0x17, 0x00, 0x10, 0x00, 0x0c, 0x00, 0x08, 0x00,
  0x00, 0x00, 0x00, 0x00, 0x00, 0x00, 0x07, 0x00, 0x16, 0x00, 0x00, 0x00,
  0x00, 0x00, 0x00, 0x01, 0x20, 0x00, 0x00, 0x00, 0x3c, 0x00, 0x00, 0x00,
  0x08, 0x00, 0x00, 0x00, 0x00, 0x00, 0x00, 0x09, 0x50, 0x00, 0x00, 0x00,
  0x0c, 0x00, 0x0c, 0x00, 0x00, 0x00, 0x00, 0x00, 0x08, 0x00, 0x04, 0x00,
  0x0c, 0x00, 0x00, 0x00, 0x08, 0x00, 0x00, 0x00, 0x10, 0x00, 0x00, 0x00,
  0x01, 0x00, 0x00, 0x00, 0x00, 0x00, 0x00, 0x00, 0x00, 0x00, 0x00, 0x00,
  0x01, 0x00, 0x00, 0x00, 0x0e, 0xcf, 0x6a, 0x3d, 0x19, 0x00, 0x00, 0x00,
  0x73, 0x65, 0x71, 0x75, 0x65, 0x6e, 0x74, 0x69, 0x61, 0x6c, 0x2f, 0x64,
  0x65, 0x6e, 0x73, 0x65, 0x5f, 0x32, 0x2f, 0x4d, 0x61, 0x74, 0x4d, 0x75,
  0x6c, 0x00, 0x00, 0x00, 0x02, 0x00, 0x00, 0x00, 0x40, 0x00, 0x00, 0x00,
  0x40, 0x00, 0x00, 0x00, 0x4e, 0xfe, 0xff, 0xff, 0x00, 0x00, 0x00, 0x01,
  0x10, 0x00, 0x00, 0x00, 0x10, 0x00, 0x00, 0x00, 0x07, 0x00, 0x00, 0x00,
  0x28, 0x00, 0x00, 0x00, 0xc8, 0xfd, 0xff, 0xff, 0x19, 0x00, 0x00, 0x00,
  0x73, 0x65, 0x71, 0x75, 0x65, 0x6e, 0x74, 0x69, 0x61, 0x6c, 0x2f, 0x64,
  0x65, 0x6e, 0x73, 0x65, 0x5f, 0x31, 0x2f, 0x4d, 0x61, 0x74, 0x4d, 0x75,
  0x6c, 0x00, 0x00, 0x00, 0x02, 0x00, 0x00, 0x00, 0x40, 0x00, 0x00, 0x00,
  0x05, 0x00, 0x00, 0x00, 0x96, 0xfe, 0xff, 0xff, 0x00, 0x00, 0x00, 0x01,
  0x10, 0x00, 0x00, 0x00, 0x10, 0x00, 0x00, 0x00, 0x06, 0x00, 0x00, 0x00,
  0x28, 0x00, 0x00, 0x00, 0x10, 0xfe, 0xff, 0xff, 0x18, 0x00, 0x00, 0x00,
  0x73, 0x65, 0x71, 0x75, 0x65, 0x6e, 0x74, 0x69, 0x61, 0x6c, 0x2f, 0x64,
  0x65, 0x6e, 0x73, 0x65, 0x2f, 0x4d, 0x61, 0x74, 0x4d, 0x75, 0x6c, 0x31,
  0x00, 0x00, 0x00, 0x00, 0x02, 0x00, 0x00, 0x00, 0x05, 0x00, 0x00, 0x00,
  0x05, 0x00, 0x00, 0x00, 0xde, 0xfe, 0xff, 0xff, 0x00, 0x00, 0x00, 0x01,
  0x10, 0x00, 0x00, 0x00, 0x10, 0x00, 0x00, 0x00, 0x05, 0x00, 0x00, 0x00,
  0x38, 0x00, 0x00, 0x00, 0x58, 0xfe, 0xff, 0xff, 0x29, 0x00, 0x00, 0x00,
  0x73, 0x65, 0x71, 0x75, 0x65, 0x6e, 0x74, 0x69, 0x61, 0x6c, 0x2f, 0x64,
  0x65, 0x6e, 0x73, 0x65, 0x5f, 0x33, 0x2f, 0x42, 0x69, 0x61, 0x73, 0x41,
  0x64, 0x64, 0x2f, 0x52, 0x65, 0x61, 0x64, 0x56, 0x61, 0x72, 0x69, 0x61,
  0x62, 0x6c, 0x65, 0x4f, 0x70, 0x00, 0x00, 0x00, 0x01, 0x00, 0x00, 0x00,
  0x01, 0x00, 0x00, 0x00, 0x32, 0xff, 0xff, 0xff, 0x00, 0x00, 0x00, 0x01,
  0x10, 0x00, 0x00, 0x00, 0x10, 0x00, 0x00, 0x00, 0x04, 0x00, 0x00, 0x00,
  0x38, 0x00, 0x00, 0x00, 0xac, 0xfe, 0xff, 0xff, 0x29, 0x00, 0x00, 0x00,
  0x73, 0x65, 0x71, 0x75, 0x65, 0x6e, 0x74, 0x69, 0x61, 0x6c, 0x2f, 0x64,
  0x65, 0x6e, 0x73, 0x65, 0x5f, 0x32, 0x2f, 0x42, 0x69, 0x61, 0x73, 0x41,
  0x64, 0x64, 0x2f, 0x52, 0x65, 0x61, 0x64, 0x56, 0x61, 0x72, 0x69, 0x61,
  0x62, 0x6c, 0x65, 0x4f, 0x70, 0x00, 0x00, 0x00, 0x01, 0x00, 0x00, 0x00,
  0x40, 0x00, 0x00, 0x00, 0x86, 0xff, 0xff, 0xff, 0x00, 0x00, 0x00, 0x01,
  0x10, 0x00, 0x00, 0x00, 0x10, 0x00, 0x00, 0x00, 0x03, 0x00, 0x00, 0x00,
  0x5c, 0x00, 0x00, 0x00, 0x00, 0xff, 0xff, 0xff, 0x4c, 0x00, 0x00, 0x00,
  0x73, 0x65, 0x71, 0x75, 0x65, 0x6e, 0x74, 0x69, 0x61, 0x6c, 0x2f, 0x64,
  0x65, 0x6e, 0x73, 0x65, 0x5f, 0x31, 0x2f, 0x4d, 0x61, 0x74, 0x4d, 0x75,
  0x6c, 0x3b, 0x73, 0x65, 0x71, 0x75, 0x65, 0x6e, 0x74, 0x69, 0x61, 0x6c,
  0x2f, 0x64, 0x65, 0x6e, 0x73, 0x65, 0x5f, 0x31, 0x2f, 0x52, 0x65, 0x6c,
  0x75, 0x3b, 0x73, 0x65, 0x71, 0x75, 0x65, 0x6e, 0x74, 0x69, 0x61, 0x6c,
  0x2f, 0x64, 0x65, 0x6e, 0x73, 0x65, 0x5f, 0x31, 0x2f, 0x42, 0x69, 0x61,
  0x73, 0x41, 0x64, 0x64, 0x00, 0x00, 0x00, 0x00, 0x01, 0x00, 0x00, 0x00,
  0x40, 0x00, 0x00, 0x00, 0x00, 0x00, 0x16, 0x00, 0x18, 0x00, 0x14, 0x00,
  0x00, 0x00, 0x10, 0x00, 0x0c, 0x00, 0x08, 0x00, 0x00, 0x00, 0x00, 0x00,
  0x00, 0x00, 0x07, 0x00, 0x16, 0x00, 0x00, 0x00, 0x00, 0x00, 0x00, 0x01,
  0x10, 0x00, 0x00, 0x00, 0x10, 0x00, 0x00, 0x00, 0x02, 0x00, 0x00, 0x00,
  0x28, 0x00, 0x00, 0x00, 0x90, 0xff, 0xff, 0xff, 0x19, 0x00, 0x00, 0x00,
  0x73, 0x65, 0x71, 0x75, 0x65, 0x6e, 0x74, 0x69, 0x61, 0x6c, 0x2f, 0x64,
  0x65, 0x6e, 0x73, 0x65, 0x5f, 0x33, 0x2f, 0x4d, 0x61, 0x74, 0x4d, 0x75,
  0x6c, 0x00, 0x00, 0x00, 0x02, 0x00, 0x00, 0x00, 0x01, 0x00, 0x00, 0x00,
  0x40, 0x00, 0x00, 0x00, 0x00, 0x00, 0x16, 0x00, 0x1c, 0x00, 0x18, 0x00,
  0x00, 0x00, 0x14, 0x00, 0x10, 0x00, 0x0c, 0x00, 0x00, 0x00, 0x00, 0x00,
  0x08, 0x00, 0x07, 0x00, 0x16, 0x00, 0x00, 0x00, 0x00, 0x00, 0x00, 0x01,
  0x14, 0x00, 0x00, 0x00, 0x20, 0x00, 0x00, 0x00, 0x20, 0x00, 0x00, 0x00,
  0x01, 0x00, 0x00, 0x00, 0x3c, 0x00, 0x00, 0x00, 0x02, 0x00, 0x00, 0x00,
  0xff, 0xff, 0xff, 0xff, 0x05, 0x00, 0x00, 0x00, 0x04, 0x00, 0x04, 0x00,
  0x04, 0x00, 0x00, 0x00, 0x1d, 0x00, 0x00, 0x00, 0x73, 0x65, 0x72, 0x76,
  0x69, 0x6e, 0x67, 0x5f, 0x64, 0x65, 0x66, 0x61, 0x75, 0x6c, 0x74, 0x5f,
  0x64, 0x65, 0x6e, 0x73, 0x65, 0x5f, 0x69, 0x6e, 0x70, 0x75, 0x74, 0x3a,
  0x30, 0x00, 0x00, 0x00, 0x02, 0x00, 0x00, 0x00, 0x01, 0x00, 0x00, 0x00,
  0x05, 0x00, 0x00, 0x00, 0x01, 0x00, 0x00, 0x00, 0x10, 0x00, 0x00, 0x00,
  0x0c, 0x00, 0x10, 0x00, 0x0f, 0x00, 0x00, 0x00, 0x08, 0x00, 0x04, 0x00,
  0x0c, 0x00, 0x00, 0x00, 0x09, 0x00, 0x00, 0x00, 0x09, 0x00, 0x00, 0x00,
  0x00, 0x00, 0x00, 0x09
};

#endif //C:\USERS\PC-KUN\DESKTOP\MOGLOVE ML\DUMPED_MODEL.H_H